{
  "version": "1.0",
  "truncation": null,
  "padding": null,
  "added_tokens": [
    {
      "id": 0,
      "content": "[UNK]",
      "single_word": false,
      "lstrip": false,
      "rstrip": false,
      "normalized": false,
      "special": true
    },
    {
      "id": 1,
      "content": "[PAD]",
      "single_word": false,
      "lstrip": false,
      "rstrip": false,
      "normalized": false,
      "special": true
    },
    {
      "id": 2,
      "content": "[CLS]",
      "single_word": false,
      "lstrip": false,
      "rstrip": false,
      "normalized": false,
      "special": true
    },
    {
      "id": 3,
      "content": "[SEP]",
      "single_word": false,
      "lstrip": false,
      "rstrip": false,
      "normalized": false,
      "special": true
    },
    {
      "id": 4,
      "content": "[MASK]",
      "single_word": false,
      "lstrip": false,
      "rstrip": false,
      "normalized": false,
      "special": true
    }
  ],
  "normalizer": null,
  "pre_tokenizer": {
    "type": "Sequence",
    "pretokenizers": [
      {
        "type": "WhitespaceSplit"
      },
      {
        "type": "Punctuation",
        "behavior": "Isolated"
      }
    ]
  },
  "post_processor": null,
  "decoder": null,
  "model": {
    "type": "WordPiece",
    "unk_token": "[UNK]",
    "continuing_subword_prefix": "##",
    "max_input_chars_per_word": 100,
    "vocab": {
      "[UNK]": 0,
      "[PAD]": 1,
      "[CLS]": 2,
      "[SEP]": 3,
      "[MASK]": 4,
      "!": 5,
      "\"": 6,
      "#": 7,
      "$": 8,
      "%": 9,
      "&": 10,
      "'": 11,
      "(": 12,
      ")": 13,
      "*": 14,
      "+": 15,
      ",": 16,
      "-": 17,
      ".": 18,
      "/": 19,
      "0": 20,
      "1": 21,
      "2": 22,
      "3": 23,
      "4": 24,
      "5": 25,
      "6": 26,
      "7": 27,
      "8": 28,
      "9": 29,
      ":": 30,
      ";": 31,
      "=": 32,
      ">": 33,
      "?": 34,
      "@": 35,
      "A": 36,
      "B": 37,
      "C": 38,
      "D": 39,
      "E": 40,
      "F": 41,
      "G": 42,
      "H": 43,
      "I": 44,
      "J": 45,
      "K": 46,
      "L": 47,
      "M": 48,
      "N": 49,
      "O": 50,
      "P": 51,
      "Q": 52,
      "R": 53,
      "S": 54,
      "T": 55,
      "U": 56,
      "V": 57,
      "W": 58,
      "X": 59,
      "Y": 60,
      "Z": 61,
      "[": 62,
      "\\": 63,
      "]": 64,
      "^": 65,
      "_": 66,
      "a": 67,
      "b": 68,
      "c": 69,
      "d": 70,
      "e": 71,
      "f": 72,
      "g": 73,
      "h": 74,
      "i": 75,
      "j": 76,
      "k": 77,
      "l": 78,
      "m": 79,
      "n": 80,
      "o": 81,
      "p": 82,
      "q": 83,
      "r": 84,
      "s": 85,
      "t": 86,
      "u": 87,
      "v": 88,
      "w": 89,
      "x": 90,
      "y": 91,
      "z": 92,
      "{": 93,
      "}": 94,
      "~": 95,
      "§": 96,
      "«": 97,
      "­": 98,
      "°": 99,
      "»": 100,
      "Å": 101,
      "Î": 102,
      "Ö": 103,
      "×": 104,
      "ß": 105,
      "à": 106,
      "á": 107,
      "â": 108,
      "ä": 109,
      "å": 110,
      "æ": 111,
      "é": 112,
      "ê": 113,
      "ë": 114,
      "í": 115,
      "î": 116,
      "ó": 117,
      "ô": 118,
      "õ": 119,
      "ö": 120,
      "ø": 121,
      "ü": 122,
      "ā": 123,
      "ą": 124,
      "ē": 125,
      "ė": 126,
      "ī": 127,
      "ł": 128,
      "ō": 129,
      "Ś": 130,
      "ś": 131,
      "ū": 132,
      "ή": 133,
      "α": 134,
      "β": 135,
      "ι": 136,
      "κ": 137,
      "μ": 138,
      "ν": 139,
      "ο": 140,
      "ρ": 141,
      "τ": 142,
      "χ": 143,
      "ω": 144,
      "П": 145,
      "С": 146,
      "в": 147,
      "й": 148,
      "н": 149,
      "о": 150,
      "р": 151,
      "ы": 152,
      "ἄ": 153,
      "–": 154,
      "—": 155,
      "‘": 156,
      "’": 157,
      "“": 158,
      "”": 159,
      "…": 160,
      "⁄": 161,
      "−": 162,
      "≈": 163,
      "壊": 164,
      "崩": 165,
      "##o": 166,
      "##e": 167,
      "##s": 168,
      "##r": 169,
      "##k": 170,
      "##a": 171,
      "##l": 172,
      "##i": 173,
      "##n": 174,
      "##u": 175,
      "##m": 176,
      "##g": 177,
      "##p": 178,
      "##c": 179,
      "##t": 180,
      "##A": 181,
      "##N": 182,
      "##D": 183,
      "##Y": 184,
      "##v": 185,
      "##d": 186,
      "##f": 187,
      "##b": 188,
      "##h": 189,
      "##w": 190,
      "##9": 191,
      "##4": 192,
      "##0": 193,
      "##ü": 194,
      "##y": 195,
      "##z": 196,
      "##x": 197,
      "##2": 198,
      "##7": 199,
      "##æ": 200,
      "##°": 201,
      "##j": 202,
      "##6": 203,
      "##q": 204,
      "##8": 205,
      "##5": 206,
      "##1": 207,
      "##U": 208,
      "##ó": 209,
      "##O": 210,
      "##P": 211,
      "##T": 212,
      "##I": 213,
      "##M": 214,
      "##C": 215,
      "##X": 216,
      "##S": 217,
      "##Q": 218,
      "##L": 219,
      "##G": 220,
      "##B": 221,
      "##3": 222,
      "##ö": 223,
      "##ß": 224,
      "##V": 225,
      "##E": 226,
      "##K": 227,
      "##R": 228,
      "##F": 229,
      "##ä": 230,
      "##H": 231,
      "##Z": 232,
      "##é": 233,
      "##W": 234,
      "##ø": 235,
      "##í": 236,
      "##壊": 237,
      "##î": 238,
      "##ê": 239,
      "##⁄": 240,
      "##ś": 241,
      "##ł": 242,
      "##ī": 243,
      "##ë": 244,
      "##α": 245,
      "##κ": 246,
      "##τ": 247,
      "##ή": 248,
      "##ρ": 249,
      "##ι": 250,
      "##ο": 251,
      "##ν": 252,
      "##ū": 253,
      "##­": 254,
      "##χ": 255,
      "##ω": 256,
      "##≈": 257,
      "##ā": 258,
      "##ō": 259,
      "##J": 260,
      "##×": 261,
      "##−": 262,
      "##á": 263,
      "##ô": 264,
      "##С": 265,
      "##å": 266,
      "##õ": 267,
      "##ē": 268,
      "##â": 269,
      "##ė": 270,
      "##й": 271,
      "##р": 272,
      "##о": 273,
      "##в": 274,
      "##н": 275,
      "##ы": 276,
      "##à": 277,
      "##ą": 278,
      "##he": 279,
      "##er": 280,
      "the": 281,
      "##ed": 282,
      "##in": 283,
      "##nd": 284,
      "##at": 285,
      "##on": 286,
      "##es": 287,
      "##or": 288,
      "##en": 289,
      "##an": 290,
      "##ar": 291,
      "of": 292,
      "and": 293,
      "##it": 294,
      "in": 295,
      "to": 296,
      "##ing": 297,
      "##al": 298,
      "##ou": 299,
      "##is": 300,
      "##re": 301,
      "##as": 302,
      "##ic": 303,
      "##ion": 304,
      "##om": 305,
      "##el": 306,
      "th": 307,
      "##ent": 308,
      "##il": 309,
      "##et": 310,
      "##ec": 311,
      "##ur": 312,
      "##st": 313,
      "##ro": 314,
      "##ly": 315,
      "##ut": 316,
      "##le": 317,
      "##ad": 318,
      "##ac": 319,
      "on": 320,
      "##ve": 321,
      "##ot": 322,
      "for": 323,
      "was": 324,
      "##ir": 325,
      "be": 326,
      "##id": 327,
      "##ers": 328,
      "##am": 329,
      "##ow": 330,
      "that": 331,
      "##ig": 332,
      "##ation": 333,
      "wh": 334,
      "##ol": 335,
      "The": 336,
      "##ce": 337,
      "re": 338,
      "##ter": 339,
      "##ay": 340,
      "##im": 341,
      "as": 342,
      "##ith": 343,
      "with": 344,
      "st": 345,
      "is": 346,
      "##se": 347,
      "##ver": 348,
      "an": 349,
      "##est": 350,
      "con": 351,
      "##ag": 352,
      "by": 353,
      "my": 354,
      "##ts": 355,
      "##ch": 356,
      "al": 357,
      "##em": 358,
      "fr": 359,
      "##ess": 360,
      "su": 361,
      "##ul": 362,
      "##ain": 363,
      "##her": 364,
      "sh": 365,
      "at": 366,
      "##ear": 367,
      "##ip": 368,
      "##od": 369,
      "##ld": 370,
      "com": 371,
      "##ich": 372,
      "19": 373,
      "##un": 374,
      "##th": 375,
      "ex": 376,
      "##ted": 377,
      "pro": 378,
      "##if": 379,
      "from": 380,
      "ha": 381,
      "##us": 382,
      "##our": 383,
      "##os": 384,
      "##iv": 385,
      "##ab": 386,
      "##ill": 387,
      "or": 388,
      "which": 389,
      "##pp": 390,
      "##um": 391,
      "##igh": 392,
      "it": 393,
      "##op": 394,
      "are": 395,
      "##ist": 396,
      "##ere": 397,
      "me": 398,
      "he": 399,
      "##ate": 400,
      "de": 401,
      "not": 402,
      "##ak": 403,
      "had": 404,
      "##ies": 405,
      "##ct": 406,
      "##ive": 407,
      "were": 408,
      "##and": 409,
      "tr": 410,
      "##erm": 411,
      "##ap": 412,
      "##ect": 413,
      "##ore": 414,
      "##ity": 415,
      "##ard": 416,
      "but": 417,
      "sp": 418,
      "##ould": 419,
      "##ie": 420,
      "se": 421,
      "en": 422,
      "ch": 423,
      "##ial": 424,
      "ar": 425,
      "##gh": 426,
      "##ort": 427,
      "##ang": 428,
      "##per": 429,
      "have": 430,
      "##ell": 431,
      "##all": 432,
      "##ment": 433,
      "##ated": 434,
      "##oun": 435,
      "##av": 436,
      "ne": 437,
      "In": 438,
      "us": 439,
      "##ight": 440,
      "##ov": 441,
      "sa": 442,
      "whe": 443,
      "##pl": 444,
      "##ber": 445,
      "##ost": 446,
      "##ans": 447,
      "his": 448,
      "##qu": 449,
      "##ough": 450,
      "##ome": 451,
      "##age": 452,
      "##ant": 453,
      "##ure": 454,
      "##ru": 455,
      "##oc": 456,
      "un": 457,
      "pl": 458,
      "##ous": 459,
      "pr": 460,
      "int": 461,
      "20": 462,
      "##ame": 463,
      "##ud": 464,
      "##ine": 465,
      "##ong": 466,
      "##art": 467,
      "##ound": 468,
      "her": 469,
      "##ence": 470,
      "##ish": 471,
      "##ast": 472,
      "##ther": 473,
      "ship": 474,
      "##ust": 475,
      "can": 476,
      "##cc": 477,
      "Germ": 478,
      "le": 479,
      "##ions": 480,
      "this": 481,
      "you": 482,
      "##ib": 483,
      "wor": 484,
      "##any": 485,
      "its": 486,
      "##ia": 487,
      "res": 488,
      "ab": 489,
      "all": 490,
      "##ally": 491,
      "##ge": 492,
      "##ary": 493,
      "##ep": 494,
      "##iz": 495,
      "##ff": 496,
      "cont": 497,
      "im": 498,
      "##ian": 499,
      "comp": 500,
      "##ks": 501,
      "##ied": 502,
      "their": 503,
      "##ass": 504,
      "##hed": 505,
      "##ind": 506,
      "one": 507,
      "##ra": 508,
      "##rit": 509,
      "##ance": 510,
      "inc": 511,
      "##og": 512,
      "ad": 513,
      "##ign": 514,
      "##so": 515,
      "##ire": 516,
      "so": 517,
      "they": 518,
      "we": 519,
      "cl": 520,
      "##able": 521,
      "mod": 522,
      "who": 523,
      "##iet": 524,
      "##reat": 525,
      "dis": 526,
      "dest": 527,
      "ag": 528,
      "fe": 529,
      "##act": 530,
      "##ations": 531,
      "##ond": 532,
      "gen": 533,
      "tw": 534,
      "##fter": 535,
      "when": 536,
      "app": 537,
      "des": 538,
      "sc": 539,
      "##out": 540,
      "other": 541,
      "##roy": 542,
      "##ub": 543,
      "up": 544,
      "##ely": 545,
      "att": 546,
      "has": 547,
      "fir": 548,
      "also": 549,
      "##ount": 550,
      "##ace": 551,
      "been": 552,
      "##oy": 553,
      "##ical": 554,
      "am": 555,
      "##pr": 556,
      "##ft": 557,
      "comm": 558,
      "It": 559,
      "more": 560,
      "ev": 561,
      "destroy": 562,
      "St": 563,
      "##ime": 564,
      "##oll": 565,
      "said": 566,
      "##ue": 567,
      "##orm": 568,
      "194": 569,
      "kn": 570,
      "rec": 571,
      "##ack": 572,
      "##fer": 573,
      "##ree": 574,
      "##pt": 575,
      "##ok": 576,
      "##over": 577,
      "##ose": 578,
      "##nder": 579,
      "##ens": 580,
      "##ning": 581,
      "bec": 582,
      "##dit": 583,
      "##uring": 584,
      "##ry": 585,
      "into": 586,
      "AI": 587,
      "##ik": 588,
      "will": 589,
      "pre": 590,
      "##oviet": 591,
      "##ice": 592,
      "##ide": 593,
      "Soviet": 594,
      "part": 595,
      "##ater": 596,
      "##ons": 597,
      "##ach": 598,
      "Th": 599,
      "##ile": 600,
      "German": 601,
      "Fr": 602,
      "##ake": 603,
      "##ced": 604,
      "she": 605,
      "##end": 606,
      "##au": 607,
      "##00": 608,
      "##ory": 609,
      "first": 610,
      "than": 611,
      "On": 612,
      "out": 613,
      "##ific": 614,
      "##ors": 615,
      "cons": 616,
      "two": 617,
      "inter": 618,
      "Un": 619,
      "##ents": 620,
      "some": 621,
      "such": 622,
      "most": 623,
      "per": 624,
      "##ood": 625,
      "after": 626,
      "gr": 627,
      "##ite": 628,
      "sy": 629,
      "##ult": 630,
      "##ward": 631,
      "off": 632,
      "##ited": 633,
      "##elf": 634,
      "##erv": 635,
      "Z2": 636,
      "him": 637,
      "time": 638,
      "##we": 639,
      "would": 640,
      "them": 641,
      "##uss": 642,
      "##ery": 643,
      "could": 644,
      "form": 645,
      "rel": 646,
      "##fore": 647,
      "Z3": 648,
      "do": 649,
      "rep": 650,
      "model": 651,
      "dec": 652,
      "##sc": 653,
      "##lud": 654,
      "man": 655,
      "##ord": 656,
      "acc": 657,
      "over": 658,
      "gener": 659,
      "##wn": 660,
      "trans": 661,
      "may": 662,
      "qu": 663,
      "used": 664,
      "##air": 665,
      "##ious": 666,
      "##urn": 667,
      "day": 668,
      "##form": 669,
      "##vel": 670,
      "##ade": 671,
      "##ug": 672,
      "rem": 673,
      "##lic": 674,
      "only": 675,
      "year": 676,
      "end": 677,
      "##red": 678,
      "##ates": 679,
      "##own": 680,
      "under": 681,
      "##du": 682,
      "Al": 683,
      "count": 684,
      "##ased": 685,
      "##ember": 686,
      "##ove": 687,
      "##ces": 688,
      "Ch": 689,
      "war": 690,
      "ret": 691,
      "imp": 692,
      "Brit": 693,
      "##led": 694,
      "includ": 695,
      "ind": 696,
      "your": 697,
      "##angu": 698,
      "bo": 699,
      "##PT": 700,
      "ever": 701,
      "no": 702,
      "##rough": 703,
      "##iss": 704,
      "##ase": 705,
      "str": 706,
      "##oss": 707,
      "car": 708,
      "hum": 709,
      "##ower": 710,
      "##ful": 711,
      "##one": 712,
      "Russ": 713,
      "bl": 714,
      "langu": 715,
      "##ath": 716,
      "sub": 717,
      "ear": 718,
      "##ings": 719,
      "##ition": 720,
      "##ild": 721,
      "char": 722,
      "ships": 723,
      "193": 724,
      "Red": 725,
      "long": 726,
      "##ped": 727,
      "##ather": 728,
      "act": 729,
      "cent": 730,
      "there": 731,
      "these": 732,
      "many": 733,
      "during": 734,
      "about": 735,
      "He": 736,
      "##ail": 737,
      "##way": 738,
      "##ural": 739,
      "##stem": 740,
      "before": 741,
      "##ered": 742,
      "new": 743,
      "em": 744,
      "te": 745,
      "then": 746,
      "##ob": 747,
      "gun": 748,
      "##land": 749,
      "##gr": 750,
      "##acter": 751,
      "bet": 752,
      "##les": 753,
      "##ines": 754,
      "##ech": 755,
      "Mar": 756,
      "sur": 757,
      "##xt": 758,
      "any": 759,
      "system": 760,
      "la": 761,
      "##gan": 762,
      "##yp": 763,
      "##ained": 764,
      "Ar": 765,
      "air": 766,
      "##ruct": 767,
      "British": 768,
      "if": 769,
      "##pen": 770,
      "GPT": 771,
      "Pr": 772,
      "##mar": 773,
      "##iend": 774,
      "##ness": 775,
      "where": 776,
      "cre": 777,
      "##ike": 778,
      "esc": 779,
      "pe": 780,
      "destroyers": 781,
      "##ict": 782,
      "##ife": 783,
      "dif": 784,
      "ob": 785,
      "##att": 786,
      "how": 787,
      "Reddit": 788,
      "cap": 789,
      "par": 790,
      "lar": 791,
      "201": 792,
      "fl": 793,
      "##hip": 794,
      "##ative": 795,
      "##ange": 796,
      "being": 797,
      "##ten": 798,
      "##olog": 799,
      "##tern": 800,
      "inst": 801,
      "met": 802,
      "This": 803,
      "pass": 804,
      "##oin": 805,
      "##ures": 806,
      "##ock": 807,
      "now": 808,
      "through": 809,
      "##ise": 810,
      "##are": 811,
      "##ished": 812,
      "play": 813,
      "lo": 814,
      "should": 815,
      "##ollow": 816,
      "our": 817,
      "##ene": 818,
      "##velop": 819,
      "##ix": 820,
      "what": 821,
      "##old": 822,
      "ref": 823,
      "En": 824,
      "det": 825,
      "own": 826,
      "##ible": 827,
      "##ween": 828,
      "##ities": 829,
      "art": 830,
      "But": 831,
      "ac": 832,
      "##ected": 833,
      "mon": 834,
      "though": 835,
      "##ational": 836,
      "##ived": 837,
      "br": 838,
      "found": 839,
      "tor": 840,
      "##ope": 841,
      "Germany": 842,
      "again": 843,
      "Ad": 844,
      "##ever": 845,
      "##aged": 846,
      "War": 847,
      "##self": 848,
      "##ual": 849,
      "##eld": 850,
      "develop": 851,
      "work": 852,
      "language": 853,
      "Re": 854,
      "##ret": 855,
      "pres": 856,
      "contin": 857,
      "##ause": 858,
      "hear": 859,
      "##ms": 860,
      "inv": 861,
      "##ick": 862,
      "three": 863,
      "##ular": 864,
      "As": 865,
      "ins": 866,
      "set": 867,
      "##ey": 868,
      "##ph": 869,
      "ass": 870,
      "mis": 871,
      "sever": 872,
      "##ublic": 873,
      "human": 874,
      "##ert": 875,
      "feel": 876,
      "Com": 877,
      "##ank": 878,
      "They": 879,
      "between": 880,
      "##ution": 881,
      "##other": 882,
      "202": 883,
      "She": 884,
      "var": 885,
      "##pos": 886,
      "reg": 887,
      "##ved": 888,
      "##ages": 889,
      "friend": 890,
      "supp": 891,
      "call": 892,
      "did": 893,
      "great": 894,
      "##ew": 895,
      "##uch": 896,
      "while": 897,
      "##illion": 898,
      "##avy": 899,
      "Russian": 900,
      "##pedo": 901,
      "go": 902,
      "very": 903,
      "##eb": 904,
      "##ued": 905,
      "co": 906,
      "lear": 907,
      "made": 908,
      "power": 909,
      "##ating": 910,
      "Nor": 911,
      "use": 912,
      "##ually": 913,
      "##ple": 914,
      "##ck": 915,
      "##imes": 916,
      "adv": 917,
      "cru": 918,
      "life": 919,
      "num": 920,
      "sec": 921,
      "##ark": 922,
      "follow": 923,
      "oper": 924,
      "##cess": 925,
      "##itt": 926,
      "##ily": 927,
      "ext": 928,
      "poss": 929,
      "see": 930,
      "four": 931,
      "like": 932,
      "##row": 933,
      "##ople": 934,
      "disc": 935,
      "every": 936,
      "##ility": 937,
      "spe": 938,
      "torpedo": 939,
      "##ern": 940,
      "##ellig": 941,
      "world": 942,
      "eff": 943,
      "occ": 944,
      "##mir": 945,
      "##its": 946,
      "those": 947,
      "##oth": 948,
      "##ept": 949,
      "Wh": 950,
      "ro": 951,
      "##ently": 952,
      "000": 953,
      "bu": 954,
      "well": 955,
      "##wor": 956,
      "ord": 957,
      "An": 958,
      "At": 959,
      "##orted": 960,
      "##wards": 961,
      "pur": 962,
      "##ble": 963,
      "##rem": 964,
      "produ": 965,
      "years": 966,
      "cruis": 967,
      "conv": 968,
      "##raft": 969,
      "became": 970,
      "dist": 971,
      "ma": 972,
      "##ner": 973,
      "##ss": 974,
      "##ection": 975,
      "##ments": 976,
      "200": 977,
      "return": 978,
      "Eng": 979,
      "bel": 980,
      "vis": 981,
      "##hen": 982,
      "dam": 983,
      "sign": 984,
      "know": 985,
      "12": 986,
      "rest": 987,
      "##par": 988,
      "##til": 989,
      "##eng": 990,
      "later": 991,
      "might": 992,
      "serv": 993,
      "##rib": 994,
      "upon": 995,
      "Jap": 996,
      "We": 997,
      "##up": 998,
      "##mer": 999,
      "##enc": 1000,
      "models": 1001,
      "people": 1002,
      "Japan": 1003,
      "rad": 1004,
      "##ink": 1005,
      "##orts": 1006,
      "##aking": 1007,
      "United": 1008,
      "Sp": 1009,
      "min": 1010,
      "yet": 1011,
      "##ient": 1012,
      "##ided": 1013,
      "spec": 1014,
      "even": 1015,
      "For": 1016,
      "##omet": 1017,
      "several": 1018,
      "18": 1019,
      "game": 1020,
      "##hes": 1021,
      "##ont": 1022,
      "##aining": 1023,
      "##ized": 1024,
      "appear": 1025,
      "often": 1026,
      "##als": 1027,
      "##ets": 1028,
      "arr": 1029,
      "guns": 1030,
      "15": 1031,
      "Dec": 1032,
      "father": 1033,
      "near": 1034,
      "##cept": 1035,
      "##essed": 1036,
      "differ": 1037,
      "same": 1038,
      "##ave": 1039,
      "##io": 1040,
      "##ier": 1041,
      "offic": 1042,
      "My": 1043,
      "ph": 1044,
      "sim": 1045,
      "conc": 1046,
      "until": 1047,
      "country": 1048,
      "##earch": 1049,
      "##ype": 1050,
      "##elligence": 1051,
      "##miral": 1052,
      "dr": 1053,
      "##ured": 1054,
      "super": 1055,
      "process": 1056,
      "eng": 1057,
      "##overn": 1058,
      "early": 1059,
      "Wor": 1060,
      "aut": 1061,
      "main": 1062,
      "term": 1063,
      "##mp": 1064,
      "##read": 1065,
      "bro": 1066,
      "id": 1067,
      "pol": 1068,
      "##ield": 1069,
      "happ": 1070,
      "December": 1071,
      "nat": 1072,
      "##anc": 1073,
      "state": 1074,
      "##ains": 1075,
      "prov": 1076,
      "Admiral": 1077,
      "dat": 1078,
      "much": 1079,
      "destroyer": 1080,
      "##echn": 1081,
      "called": 1082,
      "10": 1083,
      "##ize": 1084,
      "design": 1085,
      "Eur": 1086,
      "batt": 1087,
      "del": 1088,
      "each": 1089,
      "def": 1090,
      "ent": 1091,
      "##ially": 1092,
      "Union": 1093,
      "based": 1094,
      "ser": 1095,
      "##ann": 1096,
      "using": 1097,
      "pers": 1098,
      "sm": 1099,
      "##omb": 1100,
      "exam": 1101,
      "##ction": 1102,
      "prom": 1103,
      "known": 1104,
      "Prin": 1105,
      "cour": 1106,
      "##az": 1107,
      "##ject": 1108,
      "##ics": 1109,
      "##plet": 1110,
      "Europe": 1111,
      "After": 1112,
      "che": 1113,
      "fin": 1114,
      "make": 1115,
      "tas": 1116,
      "tok": 1117,
      "##ised": 1118,
      "word": 1119,
      "including": 1120,
      "aff": 1121,
      "mil": 1122,
      "##ched": 1123,
      "hand": 1124,
      "large": 1125,
      "gl": 1126,
      "govern": 1127,
      "net": 1128,
      "sl": 1129,
      "##ried": 1130,
      "##ined": 1131,
      "ste": 1132,
      "World": 1133,
      "Le": 1134,
      "dire": 1135,
      "down": 1136,
      "##itted": 1137,
      "##ism": 1138,
      "attack": 1139,
      "fil": 1140,
      "fam": 1141,
      "##get": 1142,
      "##craft": 1143,
      "inf": 1144,
      "##ission": 1145,
      "bacter": 1146,
      "open": 1147,
      "##une": 1148,
      "##though": 1149,
      "exp": 1150,
      "place": 1151,
      "All": 1152,
      "sing": 1153,
      "conf": 1154,
      "allow": 1155,
      "aircraft": 1156,
      "bomb": 1157,
      "##ven": 1158,
      "##hor": 1159,
      "##ane": 1160,
      "##ouse": 1161,
      "##ention": 1162,
      "##rol": 1163,
      "requ": 1164,
      "still": 1165,
      "arm": 1166,
      "saw": 1167,
      "number": 1168,
      "Apr": 1169,
      "high": 1170,
      "##ral": 1171,
      "sun": 1172,
      "expl": 1173,
      "around": 1174,
      "resp": 1175,
      "April": 1176,
      "million": 1177,
      "##ger": 1178,
      "##oup": 1179,
      "##ects": 1180,
      "##ury": 1181,
      "another": 1182,
      "##ivers": 1183,
      "sail": 1184,
      "both": 1185,
      "##ty": 1186,
      "towards": 1187,
      "##ision": 1188,
      "cur": 1189,
      "night": 1190,
      "##ired": 1191,
      "##ident": 1192,
      "ant": 1193,
      "myself": 1194,
      "lead": 1195,
      "class": 1196,
      "few": 1197,
      "partic": 1198,
      "month": 1199,
      "US": 1200,
      "cm": 1201,
      "light": 1202,
      "##ience": 1203,
      "##aced": 1204,
      "##ement": 1205,
      "##ively": 1206,
      "March": 1207,
      "Comm": 1208,
      "different": 1209,
      "must": 1210,
      "##ric": 1211,
      "##lish": 1212,
      "##AI": 1213,
      "##iving": 1214,
      "dep": 1215,
      "commun": 1216,
      "creat": 1217,
      "water": 1218,
      "##te": 1219,
      "##ale": 1220,
      "##aly": 1221,
      "##ross": 1222,
      "began": 1223,
      "const": 1224,
      "shall": 1225,
      "##ives": 1226,
      "never": 1227,
      "rele": 1228,
      "networ": 1229,
      "Aug": 1230,
      "el": 1231,
      "techn": 1232,
      "stud": 1233,
      "incre": 1234,
      "consid": 1235,
      "learning": 1236,
      "May": 1237,
      "ey": 1238,
      "hist": 1239,
      "##ament": 1240,
      "199": 1241,
      "lex": 1242,
      "Eug": 1243,
      "coll": 1244,
      "ft": 1245,
      "##ister": 1246,
      "##ipper": 1247,
      "death": 1248,
      "ful": 1249,
      "tur": 1250,
      "writ": 1251,
      "##und": 1252,
      "##ince": 1253,
      "##ots": 1254,
      "progr": 1255,
      "##acters": 1256,
      "attem": 1257,
      "prev": 1258,
      "text": 1259,
      "August": 1260,
      "Eugen": 1261,
      "Se": 1262,
      "fire": 1263,
      "just": 1264,
      "##ief": 1265,
      "single": 1266,
      "De": 1267,
      "km": 1268,
      "##ries": 1269,
      "comput": 1270,
      "appro": 1271,
      "Prinz": 1272,
      "back": 1273,
      "city": 1274,
      "##res": 1275,
      "##ting": 1276,
      "##iness": 1277,
      "##ified": 1278,
      "##used": 1279,
      "##ounts": 1280,
      "##raw": 1281,
      "because": 1282,
      "systems": 1283,
      "cond": 1284,
      "somet": 1285,
      "##sp": 1286,
      "##hing": 1287,
      "##onom": 1288,
      "enter": 1289,
      "child": 1290,
      "need": 1291,
      "##ccess": 1292,
      "characters": 1293,
      "##ency": 1294,
      "Hipper": 1295,
      "Sept": 1296,
      "Tr": 1297,
      "You": 1298,
      "mind": 1299,
      "##ium": 1300,
      "##ically": 1301,
      "intelligence": 1302,
      "September": 1303,
      "II": 1304,
      "Open": 1305,
      "##less": 1306,
      "##SR": 1307,
      "##ared": 1308,
      "heavy": 1309,
      "neural": 1310,
      "How": 1311,
      "name": 1312,
      "##uary": 1313,
      "##ving": 1314,
      "stat": 1315,
      "become": 1316,
      "boat": 1317,
      "King": 1318,
      "Pol": 1319,
      "mem": 1320,
      "##put": 1321,
      "##els": 1322,
      "These": 1323,
      "exper": 1324,
      "##iew": 1325,
      "among": 1326,
      "##oint": 1327,
      "against": 1328,
      "damaged": 1329,
      "government": 1330,
      "Cl": 1331,
      "New": 1332,
      "far": 1333,
      "fre": 1334,
      "hor": 1335,
      "##iver": 1336,
      "##rop": 1337,
      "##igin": 1338,
      "##olution": 1339,
      "organ": 1340,
      "##oved": 1341,
      "##ificial": 1342,
      "include": 1343,
      "Con": 1344,
      "old": 1345,
      "red": 1346,
      "ter": 1347,
      "take": 1348,
      "##ll": 1349,
      "inform": 1350,
      "##ames": 1351,
      "suff": 1352,
      "##avour": 1353,
      "States": 1354,
      "France": 1355,
      "##ledge": 1356,
      "##ology": 1357,
      "English": 1358,
      "Fl": 1359,
      "men": 1360,
      "##su": 1361,
      "##af": 1362,
      "##med": 1363,
      "##ged": 1364,
      "##ists": 1365,
      "##ason": 1366,
      "repl": 1367,
      "team": 1368,
      "thought": 1369,
      "##ebru": 1370,
      "30": 1371,
      "Febru": 1372,
      "av": 1373,
      "cor": 1374,
      "hel": 1375,
      "opp": 1376,
      "turn": 1377,
      "##man": 1378,
      "##ences": 1379,
      "star": 1380,
      "complet": 1381,
      "origin": 1382,
      "##ization": 1383,
      "February": 1384,
      "11": 1385,
      "Jan": 1386,
      "##ober": 1387,
      "##amed": 1388,
      "There": 1389,
      "although": 1390,
      "##ials": 1391,
      "desc": 1392,
      "##ording": 1393,
      "##meric": 1394,
      "Americ": 1395,
      "Ju": 1396,
      "fun": 1397,
      "find": 1398,
      "gu": 1399,
      "mor": 1400,
      "mach": 1401,
      "run": 1402,
      "say": 1403,
      "soc": 1404,
      "##uc": 1405,
      "took": 1406,
      "##alk": 1407,
      "##ott": 1408,
      "prot": 1409,
      "feat": 1410,
      "data": 1411,
      "January": 1412,
      "17": 1413,
      "Be": 1414,
      "Br": 1415,
      "hard": 1416,
      "nor": 1417,
      "pos": 1418,
      "port": 1419,
      "range": 1420,
      "##gest": 1421,
      "##inc": 1422,
      "exc": 1423,
      "##ours": 1424,
      "common": 1425,
      "rece": 1426,
      "underst": 1427,
      "character": 1428,
      "And": 1429,
      "public": 1430,
      "way": 1431,
      "##ling": 1432,
      "##pted": 1433,
      "##atter": 1434,
      "##ush": 1435,
      "plan": 1436,
      "##ferred": 1437,
      "##ended": 1438,
      "days": 1439,
      "however": 1440,
      "present": 1441,
      "cruiser": 1442,
      "maj": 1443,
      "Sc": 1444,
      "When": 1445,
      "pop": 1446,
      "ra": 1447,
      "##aut": 1448,
      "##ench": 1449,
      "##olved": 1450,
      "##ably": 1451,
      "##ploy": 1452,
      "##ogn": 1453,
      "desp": 1454,
      "1945": 1455,
      "escort": 1456,
      "look": 1457,
      "##ength": 1458,
      "example": 1459,
      "anti": 1460,
      "Bl": 1461,
      "Sch": 1462,
      "five": 1463,
      "land": 1464,
      "sk": 1465,
      "since": 1466,
      "##xim": 1467,
      "##ream": 1468,
      "whom": 1469,
      "ann": 1470,
      "expr": 1471,
      "deep": 1472,
      "interest": 1473,
      "discover": 1474,
      "eyes": 1475,
      "June": 1476,
      "lim": 1477,
      "wind": 1478,
      "##gin": 1479,
      "##elt": 1480,
      "success": 1481,
      "short": 1482,
      "proble": 1483,
      "##aken": 1484,
      "arch": 1485,
      "able": 1486,
      "control": 1487,
      "##dition": 1488,
      "group": 1489,
      "1936": 1490,
      "##ittle": 1491,
      "speed": 1492,
      "convoy": 1493,
      "OpenAI": 1494,
      "July": 1495,
      "Des": 1496,
      "Sw": 1497,
      "Type": 1498,
      "away": 1499,
      "wat": 1500,
      "##rie": 1501,
      "195": 1502,
      "saf": 1503,
      "French": 1504,
      "##airs": 1505,
      "est": 1506,
      "good": 1507,
      "##0s": 1508,
      "##ows": 1509,
      "real": 1510,
      "without": 1511,
      "##osed": 1512,
      "##illa": 1513,
      "enc": 1514,
      "laun": 1515,
      "##marine": 1516,
      "continued": 1517,
      "heart": 1518,
      "support": 1519,
      "following": 1520,
      "bacteria": 1521,
      "13": 1522,
      "El": 1523,
      "Oct": 1524,
      "Some": 1525,
      "equ": 1526,
      "kind": 1527,
      "mine": 1528,
      "post": 1529,
      "##most": 1530,
      "##orn": 1531,
      "##oman": 1532,
      "forward": 1533,
      "rev": 1534,
      "##ession": 1535,
      "##osc": 1536,
      "dev": 1537,
      "add": 1538,
      "battles": 1539,
      "major": 1540,
      "October": 1541,
      "14": 1542,
      "During": 1543,
      "Her": 1544,
      "Sh": 1545,
      "bre": 1546,
      "cr": 1547,
      "dem": 1548,
      "lab": 1549,
      "move": 1550,
      "po": 1551,
      "tons": 1552,
      "##ror": 1553,
      "##ator": 1554,
      "##ony": 1555,
      "##isted": 1556,
      "##ilt": 1557,
      "##eter": 1558,
      "##rodu": 1559,
      "##ode": 1560,
      "##ortun": 1561,
      "company": 1562,
      "others": 1563,
      "peri": 1564,
      "countries": 1565,
      "carried": 1566,
      "various": 1567,
      "friends": 1568,
      "direct": 1569,
      "24": 1570,
      "little": 1571,
      "mounts": 1572,
      "sou": 1573,
      "sol": 1574,
      "##fic": 1575,
      "##ored": 1576,
      "##ached": 1577,
      "##ols": 1578,
      "##ceed": 1579,
      "##iven": 1580,
      "##illed": 1581,
      "second": 1582,
      "build": 1583,
      "belie": 1584,
      "program": 1585,
      "16": 1586,
      "ice": 1587,
      "let": 1588,
      "##lished": 1589,
      "##ately": 1590,
      "##ese": 1591,
      "##ster": 1592,
      "whose": 1593,
      "impro": 1594,
      "##ruction": 1595,
      "room": 1596,
      "period": 1597,
      "Lond": 1598,
      "grow": 1599,
      "med": 1600,
      "##ri": 1601,
      "##ren": 1602,
      "##itary": 1603,
      "##rew": 1604,
      "##urance": 1605,
      "exist": 1606,
      "prop": 1607,
      "left": 1608,
      "passed": 1609,
      "##ertain": 1610,
      "series": 1611,
      "Bis": 1612,
      "Nove": 1613,
      "best": 1614,
      "ec": 1615,
      "last": 1616,
      "sat": 1617,
      "##ai": 1618,
      "##ior": 1619,
      "##mber": 1620,
      "##ves": 1621,
      "##eth": 1622,
      "within": 1623,
      "users": 1624,
      "perform": 1625,
      "feelings": 1626,
      "occup": 1627,
      "London": 1628,
      "November": 1629,
      "Oper": 1630,
      "Pl": 1631,
      "ca": 1632,
      "fail": 1633,
      "less": 1634,
      "##aim": 1635,
      "##ues": 1636,
      "##erable": 1637,
      "##int": 1638,
      "##lex": 1639,
      "##hers": 1640,
      "##anding": 1641,
      "##anger": 1642,
      "former": 1643,
      "refl": 1644,
      "Reich": 1645,
      "person": 1646,
      "small": 1647,
      "months": 1648,
      "information": 1649,
      "cal": 1650,
      "home": 1651,
      "lay": 1652,
      "mom": 1653,
      "mult": 1654,
      "six": 1655,
      "##oot": 1656,
      "##line": 1657,
      "##uation": 1658,
      "##day": 1659,
      "##ense": 1660,
      "##ither": 1661,
      "##alth": 1662,
      "##ices": 1663,
      "##ides": 1664,
      "read": 1665,
      "anim": 1666,
      "sum": 1667,
      "##akes": 1668,
      "##ude": 1669,
      "cann": 1670,
      "import": 1671,
      "law": 1672,
      "escorted": 1673,
      "ordered": 1674,
      "Mosc": 1675,
      "col": 1676,
      "ele": 1677,
      "fut": 1678,
      "felt": 1679,
      "led": 1680,
      "mag": 1681,
      "site": 1682,
      "##iqu": 1683,
      "##ators": 1684,
      "##ened": 1685,
      "##alt": 1686,
      "##otilla": 1687,
      "head": 1688,
      "##ards": 1689,
      "compan": 1690,
      "ide": 1691,
      "film": 1692,
      "battleship": 1693,
      "Moscow": 1694,
      "21": 1695,
      "Emp": 1696,
      "bus": 1697,
      "bene": 1698,
      "came": 1699,
      "ple": 1700,
      "##oon": 1701,
      "##ination": 1702,
      "##ants": 1703,
      "##itz": 1704,
      "##ections": 1705,
      "research": 1706,
      "artificial": 1707,
      "Japanese": 1708,
      "history": 1709,
      "sometimes": 1710,
      "dom": 1711,
      "fear": 1712,
      "loc": 1713,
      "sit": 1714,
      "##aw": 1715,
      "##bers": 1716,
      "##ash": 1717,
      "once": 1718,
      "beh": 1719,
      "begin": 1720,
      "almost": 1721,
      "Russia": 1722,
      "earth": 1723,
      "natural": 1724,
      "mid": 1725,
      "ris": 1726,
      "##eed": 1727,
      "##ron": 1728,
      "##itions": 1729,
      "##ases": 1730,
      "191": 1731,
      "soon": 1732,
      "One": 1733,
      "created": 1734,
      "returned": 1735,
      "token": 1736,
      "22": 1737,
      "Is": 1738,
      "Kong": 1739,
      "Pal": 1740,
      "free": 1741,
      "val": 1742,
      "##ney": 1743,
      "##dom": 1744,
      "init": 1745,
      "too": 1746,
      "mean": 1747,
      "chang": 1748,
      "##ustr": 1749,
      "level": 1750,
      "##iety": 1751,
      "laid": 1752,
      "Gen": 1753,
      "If": 1754,
      "pat": 1755,
      "vers": 1756,
      "##iant": 1757,
      "##ned": 1758,
      "##tain": 1759,
      "##wer": 1760,
      "##arm": 1761,
      "##lear": 1762,
      "##acks": 1763,
      "prob": 1764,
      "##abeth": 1765,
      "trained": 1766,
      "next": 1767,
      "##izabeth": 1768,
      "quest": 1769,
      "possible": 1770,
      "order": 1771,
      "cruisers": 1772,
      "USSR": 1773,
      "Elizabeth": 1774,
      "Operation": 1775,
      "future": 1776,
      "Empire": 1777,
      "By": 1778,
      "Navy": 1779,
      "late": 1780,
      "##use": 1781,
      "##der": 1782,
      "##esent": 1783,
      "##ilar": 1784,
      "##amp": 1785,
      "repr": 1786,
      "##ulation": 1787,
      "##ody": 1788,
      "come": 1789,
      "trav": 1790,
      "##antic": 1791,
      "addition": 1792,
      "languages": 1793,
      "Norway": 1794,
      "cannot": 1795,
      "view": 1796,
      "##ship": 1797,
      "##ler": 1798,
      "##ians": 1799,
      "##bur": 1800,
      "##ina": 1801,
      "Z25": 1802,
      "meters": 1803,
      "development": 1804,
      "coast": 1805,
      "task": 1806,
      "military": 1807,
      "econom": 1808,
      "fac": 1809,
      "fact": 1810,
      "love": 1811,
      "point": 1812,
      "taken": 1813,
      "##üt": 1814,
      "##atic": 1815,
      "##ories": 1816,
      "##ars": 1817,
      "##ital": 1818,
      "##aster": 1819,
      "##omm": 1820,
      "##idence": 1821,
      "##owed": 1822,
      "along": 1823,
      "spot": 1824,
      "content": 1825,
      "does": 1826,
      "transpos": 1827,
      "diffic": 1828,
      "players": 1829,
      "provided": 1830,
      "words": 1831,
      "family": 1832,
      "difficult": 1833,
      "cover": 1834,
      "eas": 1835,
      "pub": 1836,
      "rap": 1837,
      "vo": 1838,
      "##ax": 1839,
      "##itude": 1840,
      "##ety": 1841,
      "##ights": 1842,
      "training": 1843,
      "knots": 1844,
      "Z38": 1845,
      "##ological": 1846,
      "occur": 1847,
      "knowledge": 1848,
      "service": 1849,
      "radio": 1850,
      "minut": 1851,
      "brok": 1852,
      "important": 1853,
      "No": 1854,
      "Pro": 1855,
      "cell": 1856,
      "mater": 1857,
      "mph": 1858,
      "making": 1859,
      "sn": 1860,
      "typ": 1861,
      "forces": 1862,
      "meet": 1863,
      "spir": 1864,
      "seem": 1865,
      "result": 1866,
      "modern": 1867,
      "humans": 1868,
      "1939": 1869,
      "##ways": 1870,
      "employ": 1871,
      "insurance": 1872,
      "specific": 1873,
      "European": 1874,
      "steam": 1875,
      "help": 1876,
      "represent": 1877,
      "25": 1878,
      "23": 1879,
      "dear": 1880,
      "mot": 1881,
      "##oks": 1882,
      "##sel": 1883,
      "##rap": 1884,
      "##gy": 1885,
      "##chers": 1886,
      "##ying": 1887,
      "##ances": 1888,
      "##alf": 1889,
      "196": 1890,
      "##aves": 1891,
      "leg": 1892,
      "event": 1893,
      "networks": 1894,
      "However": 1895,
      "Gr": 1896,
      "Lüt": 1897,
      "length": 1898,
      "mut": 1899,
      "sw": 1900,
      "##ex": 1901,
      "##app": 1902,
      "##nde": 1903,
      "##oud": 1904,
      "##irc": 1905,
      "beaut": 1906,
      "struct": 1907,
      "192": 1908,
      "##ecture": 1909,
      "unc": 1910,
      "##ibility": 1911,
      "##ensive": 1912,
      "general": 1913,
      "century": 1914,
      "maxim": 1915,
      "nature": 1916,
      "28": 1917,
      "cause": 1918,
      "eight": 1919,
      "give": 1920,
      "hit": 1921,
      "list": 1922,
      "mer": 1923,
      "sour": 1924,
      "times": 1925,
      "wond": 1926,
      "##uel": 1927,
      "##ware": 1928,
      "##ecess": 1929,
      "change": 1930,
      "##ounced": 1931,
      "wee": 1932,
      "twin": 1933,
      "applic": 1934,
      "Z24": 1935,
      "crew": 1936,
      "developed": 1937,
      "heard": 1938,
      "built": 1939,
      "processing": 1940,
      "entire": 1941,
      "particular": 1942,
      "1936A": 1943,
      "Bay": 1944,
      "His": 1945,
      "certain": 1946,
      "fitted": 1947,
      "hours": 1948,
      "line": 1949,
      "tro": 1950,
      "test": 1951,
      "##gs": 1952,
      "##den": 1953,
      "##icro": 1954,
      "##str": 1955,
      "states": 1956,
      "heav": 1957,
      "sea": 1958,
      "separ": 1959,
      "##igned": 1960,
      "generally": 1961,
      "2018": 1962,
      "across": 1963,
      "##ribut": 1964,
      "radar": 1965,
      "appeared": 1966,
      "similar": 1967,
      "##ready": 1968,
      "tasks": 1969,
      "released": 1970,
      "describ": 1971,
      "##selves": 1972,
      "maximum": 1973,
      "Balt": 1974,
      "billion": 1975,
      "fle": 1976,
      "given": 1977,
      "mi": 1978,
      "mar": 1979,
      "mount": 1980,
      "oil": 1981,
      "put": 1982,
      "ru": 1983,
      "tem": 1984,
      "##ress": 1985,
      "##lu": 1986,
      "##iated": 1987,
      "##for": 1988,
      "##ins": 1989,
      "top": 1990,
      "##isms": 1991,
      "thus": 1992,
      "##otent": 1993,
      "stand": 1994,
      "already": 1995,
      "##ipt": 1996,
      "means": 1997,
      "usually": 1998,
      "introdu": 1999,
      "##ounds": 2000,
      "##epend": 2001,
      "1941": 2002,
      "Z23": 2003,
      "decl": 2004,
      "remained": 2005,
      "centim": 2006,
      "surv": 2007,
      "tokens": 2008,
      "curr": 2009,
      "children": 2010,
      "morning": 2011,
      "bi": 2012,
      "gave": 2013,
      "mass": 2014,
      "##por": 2015,
      "##eral": 2016,
      "##owers": 2017,
      "##ung": 2018,
      "prof": 2019,
      "##ivil": 2020,
      "##aps": 2021,
      "env": 2022,
      "least": 2023,
      "Arm": 2024,
      "load": 2025,
      "2020": 2026,
      "While": 2027,
      "ident": 2028,
      "armament": 2029,
      "full": 2030,
      "boats": 2031,
      "safety": 2032,
      "pleas": 2033,
      "Fu": 2034,
      "ke": 2035,
      "pain": 2036,
      "sent": 2037,
      "##ev": 2038,
      "##br": 2039,
      "##hel": 2040,
      "think": 2041,
      "##urther": 2042,
      "##oted": 2043,
      "stru": 2044,
      "ans": 2045,
      "conn": 2046,
      "##cho": 2047,
      "198": 2048,
      "attention": 2049,
      "1943": 2050,
      "recogn": 2051,
      "##augh": 2052,
      "intern": 2053,
      "determ": 2054,
      "effect": 2055,
      "previous": 2056,
      "original": 2057,
      "north": 2058,
      "break": 2059,
      "36": 2060,
      "Ag": 2061,
      "Krie": 2062,
      "cult": 2063,
      "case": 2064,
      "div": 2065,
      "fall": 2066,
      "mat": 2067,
      "mark": 2068,
      "rather": 2069,
      "sens": 2070,
      "vir": 2071,
      "##ead": 2072,
      "##ript": 2073,
      "##NA": 2074,
      "##hev": 2075,
      "##ork": 2076,
      "##alent": 2077,
      "##reen": 2078,
      "ask": 2079,
      "always": 2080,
      "area": 2081,
      "##ape": 2082,
      "Germans": 2083,
      "displ": 2084,
      "agre": 2085,
      "From": 2086,
      "##rought": 2087,
      "misery": 2088,
      "miserable": 2089,
      "American": 2090,
      "archit": 2091,
      "LL": 2092,
      "Tw": 2093,
      "cott": 2094,
      "dou": 2095,
      "won": 2096,
      "youn": 2097,
      "##rist": 2098,
      "##iation": 2099,
      "##mit": 2100,
      "##face": 2101,
      "##hy": 2102,
      "##ingu": 2103,
      "conce": 2104,
      "##ills": 2105,
      "##istic": 2106,
      "deg": 2107,
      "soft": 2108,
      "claim": 2109,
      "party": 2110,
      "care": 2111,
      "obs": 2112,
      "2021": 2113,
      "signific": 2114,
      "arrived": 2115,
      "official": 2116,
      "polic": 2117,
      "happiness": 2118,
      "##issioned": 2119,
      "attempt": 2120,
      "problems": 2121,
      "moment": 2122,
      "rapid": 2123,
      "##gsmarine": 2124,
      "Baltic": 2125,
      "Kriegsmarine": 2126,
      "Cent": 2127,
      "House": 2128,
      "Met": 2129,
      "Or": 2130,
      "Par": 2131,
      "Sec": 2132,
      "York": 2133,
      "bar": 2134,
      "field": 2135,
      "here": 2136,
      "half": 2137,
      "pair": 2138,
      "self": 2139,
      "sister": 2140,
      "vide": 2141,
      "##oom": 2142,
      "##eavour": 2143,
      "##ring": 2144,
      "##lin": 2145,
      "##min": 2146,
      "##ming": 2147,
      "##bo": 2148,
      "##joy": 2149,
      "##asion": 2150,
      "##eters": 2151,
      "##sequ": 2152,
      "##ague": 2153,
      "alone": 2154,
      "itself": 2155,
      "scene": 2156,
      "consum": 2157,
      "formed": 2158,
      "endeavour": 2159,
      "indeed": 2160,
      "England": 2161,
      "polit": 2162,
      "Sea": 2163,
      "popular": 2164,
      "published": 2165,
      "Fel": 2166,
      "Min": 2167,
      "brought": 2168,
      "circ": 2169,
      "due": 2170,
      "hope": 2171,
      "mur": 2172,
      "search": 2173,
      "ut": 2174,
      "##iel": 2175,
      "##iam": 2176,
      "##gen": 2177,
      "##gian": 2178,
      "##cing": 2179,
      "theory": 2180,
      "##anced": 2181,
      "##ison": 2182,
      "fore": 2183,
      "##ird": 2184,
      "story": 2185,
      "comb": 2186,
      "##ability": 2187,
      "arg": 2188,
      "pred": 2189,
      "whole": 2190,
      "1944": 2191,
      "according": 2192,
      "generative": 2193,
      "independ": 2194,
      "peace": 2195,
      "##attle": 2196,
      "acqu": 2197,
      "followed": 2198,
      "engaged": 2199,
      "designed": 2200,
      "influ": 2201,
      "network": 2202,
      "study": 2203,
      "increased": 2204,
      "turned": 2205,
      "machine": 2206,
      "Oh": 2207,
      "food": 2208,
      "lost": 2209,
      "mines": 2210,
      "non": 2211,
      "nav": 2212,
      "right": 2213,
      "side": 2214,
      "##field": 2215,
      "##heim": 2216,
      "##alin": 2217,
      "##ecut": 2218,
      "reason": 2219,
      "analy": 2220,
      "##emy": 2221,
      "##ivid": 2222,
      "enjoy": 2223,
      "##antly": 2224,
      "above": 2225,
      "close": 2226,
      "command": 2227,
      "1942": 2228,
      "##oke": 2229,
      "##ification": 2230,
      "reported": 2231,
      "visit": 2232,
      "concern": 2233,
      "author": 2234,
      "miles": 2235,
      "considered": 2236,
      "computer": 2237,
      "frequ": 2238,
      "growth": 2239,
      "voice": 2240,
      "envir": 2241,
      "Ge": 2242,
      "Great": 2243,
      "Man": 2244,
      "Wes": 2245,
      "foot": 2246,
      "get": 2247,
      "hop": 2248,
      "ill": 2249,
      "mov": 2250,
      "potent": 2251,
      "##oh": 2252,
      "##uff": 2253,
      "##bs": 2254,
      "##erc": 2255,
      "##itive": 2256,
      "sty": 2257,
      "##iple": 2258,
      "##ival": 2259,
      "enough": 2260,
      "##elled": 2261,
      "##ought": 2262,
      "prec": 2263,
      "themselves": 2264,
      "transferred": 2265,
      "better": 2266,
      "sunk": 2267,
      "launched": 2268,
      "believe": 2269,
      "improve": 2270,
      "Felix": 2271,
      "41": 2272,
      "Tro": 2273,
      "hig": 2274,
      "jour": 2275,
      "join": 2276,
      "lit": 2277,
      "live": 2278,
      "mech": 2279,
      "vess": 2280,
      "wret": 2281,
      "##round": 2282,
      "##enit": 2283,
      "tot": 2284,
      "toget": 2285,
      "##ilities": 2286,
      "##acy": 2287,
      "##osing": 2288,
      "##istr": 2289,
      "##arded": 2290,
      "##quare": 2291,
      "##ousand": 2292,
      "pract": 2293,
      "image": 2294,
      "compet": 2295,
      "complex": 2296,
      "Italy": 2297,
      "events": 2298,
      "consisted": 2299,
      "##erval": 2300,
      "activ": 2301,
      "create": 2302,
      "capt": 2303,
      "greater": 2304,
      "Norwe": 2305,
      "court": 2306,
      "leaders": 2307,
      "particip": 2308,
      "Clerval": 2309,
      "despair": 2310,
      "version": 2311,
      "centimeter": 2312,
      "FuM": 2313,
      "together": 2314,
      "70": 2315,
      "Can": 2316,
      "DNA": 2317,
      "age": 2318,
      "bad": 2319,
      "fell": 2320,
      "fix": 2321,
      "gent": 2322,
      "held": 2323,
      "house": 2324,
      "sem": 2325,
      "vol": 2326,
      "##rain": 2327,
      "##cted": 2328,
      "##fl": 2329,
      "##here": 2330,
      "##onment": 2331,
      "thousand": 2332,
      "##urning": 2333,
      "spent": 2334,
      "sequ": 2335,
      "science": 2336,
      "Stalin": 2337,
      "himself": 2338,
      "repairs": 2339,
      "##reddit": 2340,
      "black": 2341,
      "action": 2342,
      "therefore": 2343,
      "Mars": 2344,
      "purs": 2345,
      "convers": 2346,
      "course": 2347,
      "consider": 2348,
      "members": 2349,
      "mechan": 2350,
      "Norwegian": 2351,
      "35": 2352,
      "50": 2353,
      "Battle": 2354,
      "Rep": 2355,
      "Roman": 2356,
      "West": 2357,
      "Zenit": 2358,
      "ach": 2359,
      "body": 2360,
      "necess": 2361,
      "ve": 2362,
      "##oid": 2363,
      "told": 2364,
      "##ality": 2365,
      "threat": 2366,
      "##roph": 2367,
      "front": 2368,
      "##iful": 2369,
      "##pped": 2370,
      "health": 2371,
      "neg": 2372,
      "Intern": 2373,
      "imag": 2374,
      "club": 2375,
      "scen": 2376,
      "ground": 2377,
      "##erved": 2378,
      "Z31": 2379,
      "accom": 2380,
      "strong": 2381,
      "instead": 2382,
      "invest": 2383,
      "North": 2384,
      "Kingdom": 2385,
      "features": 2386,
      "announced": 2387,
      "building": 2388,
      "snow": 2389,
      "wonder": 2390,
      "Two": 2391,
      "Am": 2392,
      "Af": 2393,
      "Fin": 2394,
      "Other": 2395,
      "Wind": 2396,
      "cost": 2397,
      "clear": 2398,
      "civil": 2399,
      "past": 2400,
      "vict": 2401,
      "wide": 2402,
      "##ters": 2403,
      "##va": 2404,
      "##fortun": 2405,
      "##hod": 2406,
      "##ys": 2407,
      "##GPT": 2408,
      "##anish": 2409,
      "##iting": 2410,
      "##ising": 2411,
      "##asing": 2412,
      "##ilos": 2413,
      "##urity": 2414,
      "##aces": 2415,
      "start": 2416,
      "step": 2417,
      "##hern": 2418,
      "##earchers": 2419,
      "having": 2420,
      "##isters": 2421,
      "##ples": 2422,
      "weap": 2423,
      "remain": 2424,
      "emer": 2425,
      "##marck": 2426,
      "detect": 2427,
      "going": 2428,
      "role": 2429,
      "##reme": 2430,
      "produce": 2431,
      "produced": 2432,
      "broad": 2433,
      "entered": 2434,
      "Bismarck": 2435,
      "idea": 2436,
      "troop": 2437,
      "rule": 2438,
      "environment": 2439,
      "achie": 2440,
      "##ilosop": 2441,
      "39": 2442,
      "60": 2443,
      "Many": 2444,
      "Valent": 2445,
      "ap": 2446,
      "dark": 2447,
      "draw": 2448,
      "tar": 2449,
      "win": 2450,
      "went": 2451,
      "##ee": 2452,
      "##ien": 2453,
      "##gar": 2454,
      "##eless": 2455,
      "##urs": 2456,
      "##struct": 2457,
      "force": 2458,
      "forced": 2459,
      "island": 2460,
      "##ulpt": 2461,
      "exh": 2462,
      "trad": 2463,
      "##ounter": 2464,
      "user": 2465,
      "uses": 2466,
      "##ustom": 2467,
      "resul": 2468,
      "##izing": 2469,
      "impr": 2470,
      "appar": 2471,
      "fired": 2472,
      "intercept": 2473,
      "deck": 2474,
      "Christ": 2475,
      "individ": 2476,
      "capable": 2477,
      "largest": 2478,
      "torpedoes": 2479,
      "nearly": 2480,
      "engine": 2481,
      "happy": 2482,
      "affection": 2483,
      "Allied": 2484,
      "communic": 2485,
      "prevent": 2486,
      "avail": 2487,
      "social": 2488,
      "LLM": 2489,
      "Ex": 2490,
      "Lane": 2491,
      "To": 2492,
      "ban": 2493,
      "bit": 2494,
      "cel": 2495,
      "esp": 2496,
      "national": 2497,
      "perm": 2498,
      "sank": 2499,
      "tre": 2500,
      "tel": 2501,
      "want": 2502,
      "##lus": 2503,
      "##iol": 2504,
      "##pose": 2505,
      "##ering": 2506,
      "##itut": 2507,
      "input": 2508,
      "town": 2509,
      "##lement": 2510,
      "rear": 2511,
      "##ayers": 2512,
      "##imate": 2513,
      "##ager": 2514,
      "show": 2515,
      "sports": 2516,
      "neur": 2517,
      "Z39": 2518,
      "transform": 2519,
      "block": 2520,
      "longer": 2521,
      "Pres": 2522,
      "method": 2523,
      "thoughts": 2524,
      "##itting": 2525,
      "possessed": 2526,
      "opened": 2527,
      "lexer": 2528,
      "Trans": 2529,
      "##ceeded": 2530,
      "magn": 2531,
      "answer": 2532,
      "virt": 2533,
      "total": 2534,
      "27": 2535,
      "Bush": 2536,
      "Mod": 2537,
      "Naz": 2538,
      "Sl": 2539,
      "bas": 2540,
      "crit": 2541,
      "favour": 2542,
      "fuel": 2543,
      "further": 2544,
      "loss": 2545,
      "miss": 2546,
      "nation": 2547,
      "treat": 2548,
      "voy": 2549,
      "##side": 2550,
      "##aff": 2551,
      "##iate": 2552,
      "##ne": 2553,
      "##mb": 2554,
      "##val": 2555,
      "##zow": 2556,
      "##ndheim": 2557,
      "##outh": 2558,
      "##aded": 2559,
      "##iday": 2560,
      "reached": 2561,
      "stre": 2562,
      "areas": 2563,
      "dead": 2564,
      "seen": 2565,
      "cho": 2566,
      "works": 2567,
      "gene": 2568,
      "##oyal": 2569,
      "Z27": 2570,
      "transm": 2571,
      "book": 2572,
      "subreddit": 2573,
      "object": 2574,
      "param": 2575,
      "2017": 2576,
      "2023": 2577,
      "operation": 2578,
      "What": 2579,
      "philosop": 2580,
      "League": 2581,
      "allowed": 2582,
      "elect": 2583,
      "benef": 2584,
      "minutes": 2585,
      "Lützow": 2586,
      "keep": 2587,
      "foreign": 2588,
      "Trondheim": 2589,
      "Republic": 2590,
      "individual": 2591,
      "espec": 2592,
      "26": 2593,
      "31": 2594,
      "Ab": 2595,
      "Az": 2596,
      "Er": 2597,
      "Ne": 2598,
      "dream": 2599,
      "joy": 2600,
      "lov": 2601,
      "nort": 2602,
      "named": 2603,
      "type": 2604,
      "und": 2605,
      "wall": 2606,
      "wood": 2607,
      "##ners": 2608,
      "##bed": 2609,
      "##wed": 2610,
      "##jord": 2611,
      "##jects": 2612,
      "##MS": 2613,
      "##ones": 2614,
      "##enh": 2615,
      "##etic": 2616,
      "##ston": 2617,
      "##ires": 2618,
      "why": 2619,
      "##imin": 2620,
      "nothing": 2621,
      "enemy": 2622,
      "princ": 2623,
      "attacks": 2624,
      "##prise": 2625,
      "Ital": 2626,
      "destroyed": 2627,
      "republic": 2628,
      "decision": 2629,
      "China": 2630,
      "surface": 2631,
      "damage": 2632,
      "explos": 2633,
      "turb": 2634,
      "Flotilla": 2635,
      "understand": 2636,
      "caused": 2637,
      "introduced": 2638,
      "Bar": 2639,
      "Len": 2640,
      "aft": 2641,
      "der": 2642,
      "foc": 2643,
      "mus": 2644,
      "names": 2645,
      "powers": 2646,
      "sal": 2647,
      "size": 2648,
      "scho": 2649,
      "tub": 2650,
      "wa": 2651,
      "##lied": 2652,
      "##ios": 2653,
      "##uge": 2654,
      "##ton": 2655,
      "##eration": 2656,
      "##ata": 2657,
      "##ature": 2658,
      "##onn": 2659,
      "##ites": 2660,
      "##astern": 2661,
      "##icient": 2662,
      "##ify": 2663,
      "##eller": 2664,
      "whether": 2665,
      "univers": 2666,
      "placed": 2667,
      "imm": 2668,
      "desire": 2669,
      "scient": 2670,
      "evac": 2671,
      "Z29": 2672,
      "manner": 2673,
      "quick": 2674,
      "Britain": 2675,
      "##fully": 2676,
      "1938": 2677,
      "Art": 2678,
      "##iction": 2679,
      "capac": 2680,
      "effects": 2681,
      "Atl": 2682,
      "autom": 2683,
      "chem": 2684,
      "depart": 2685,
      "technology": 2686,
      "horror": 2687,
      "function": 2688,
      "limited": 2689,
      "watch": 2690,
      "existence": 2691,
      "beginning": 2692,
      "spotted": 2693,
      "materials": 2694,
      "source": 2695,
      "architecture": 2696,
      "degree": 2697,
      "video": 2698,
      "Geor": 2699,
      "Windows": 2700,
      "especially": 2701,
      "Hit": 2702,
      "National": 2703,
      "With": 2704,
      "bound": 2705,
      "cred": 2706,
      "either": 2707,
      "sil": 2708,
      "sold": 2709,
      "viol": 2710,
      "##ract": 2711,
      "##iers": 2712,
      "##to": 2713,
      "##arn": 2714,
      "##itution": 2715,
      "##isc": 2716,
      "refer": 2717,
      "sug": 2718,
      "true": 2719,
      "season": 2720,
      "leave": 2721,
      "resolved": 2722,
      "consist": 2723,
      "Z34": 2724,
      "books": 2725,
      "creation": 2726,
      "larger": 2727,
      "feeling": 2728,
      "greatest": 2729,
      "learned": 2730,
      "operations": 2731,
      "seek": 2732,
      "special": 2733,
      "##mpath": 2734,
      "attacked": 2735,
      "expected": 2736,
      "sailed": 2737,
      "written": 2738,
      "attempted": 2739,
      "memory": 2740,
      "completed": 2741,
      "position": 2742,
      "received": 2743,
      "equip": 2744,
      "south": 2745,
      "struck": 2746,
      "asked": 2747,
      "policy": 2748,
      "political": 2749,
      "available": 2750,
      "Atlantic": 2751,
      "Hitler": 2752,
      "00": 2753,
      "City": 2754,
      "Dest": 2755,
      "Wag": 2756,
      "code": 2757,
      "died": 2758,
      "done": 2759,
      "fiend": 2760,
      "nov": 2761,
      "native": 2762,
      "pap": 2763,
      "rob": 2764,
      "sink": 2765,
      "tit": 2766,
      "via": 2767,
      "##port": 2768,
      "##yd": 2769,
      "##erative": 2770,
      "##atory": 2771,
      "##itation": 2772,
      "##omes": 2773,
      "fort": 2774,
      "##iding": 2775,
      "reven": 2776,
      "197": 2777,
      "except": 2778,
      "##ateg": 2779,
      "##elling": 2780,
      "prim": 2781,
      "researchers": 2782,
      "images": 2783,
      "##soft": 2784,
      "sculpt": 2785,
      "That": 2786,
      "Frank": 2787,
      "sympath": 2788,
      "counten": 2789,
      "##obile": 2790,
      "purpose": 2791,
      "battle": 2792,
      "##anned": 2793,
      "hands": 2794,
      "slight": 2795,
      "bombers": 2796,
      "respons": 2797,
      "Commun": 2798,
      "creature": 2799,
      "started": 2800,
      "protect": 2801,
      "express": 2802,
      "waters": 2803,
      "estab": 2804,
      "occupied": 2805,
      "business": 2806,
      "beautiful": 2807,
      "cottage": 2808,
      "doub": 2809,
      "Meta": 2810,
      "murder": 2811,
      "gentle": 2812,
      "Afric": 2813,
      "celeb": 2814,
      "suggest": 2815,
      "Wagner": 2816,
      "37": 2817,
      "AG": 2818,
      "Acc": 2819,
      "Ber": 2820,
      "East": 2821,
      "Go": 2822,
      "Live": 2823,
      "Micro": 2824,
      "Res": 2825,
      "Yet": 2826,
      "cut": 2827,
      "eth": 2828,
      "face": 2829,
      "fund": 2830,
      "opt": 2831,
      "pa": 2832,
      "pay": 2833,
      "ten": 2834,
      "wid": 2835,
      "wild": 2836,
      "waves": 2837,
      "##li": 2838,
      "##iec": 2839,
      "##uk": 2840,
      "##pts": 2841,
      "##cil": 2842,
      "##fort": 2843,
      "##by": 2844,
      "##ze": 2845,
      "##2D": 2846,
      "##erve": 2847,
      "offer": 2848,
      "inj": 2849,
      "##idents": 2850,
      "##ull": 2851,
      "##uments": 2852,
      "depar": 2853,
      "ard": 2854,
      "##ocr": 2855,
      "record": 2856,
      "Z26": 2857,
      "Z32": 2858,
      "Z37": 2859,
      "account": 2860,
      "boil": 2861,
      "##ails": 2862,
      "flotilla": 2863,
      "invol": 2864,
      "goal": 2865,
      "numer": 2866,
      "Spart": 2867,
      "superint": 2868,
      "datas": 2869,
      "delight": 2870,
      "promise": 2871,
      "glob": 2872,
      "respect": 2873,
      "Common": 2874,
      "depend": 2875,
      "release": 2876,
      "territ": 2877,
      "added": 2878,
      "poor": 2879,
      "failed": 2880,
      "companies": 2881,
      "probably": 2882,
      "##ships": 2883,
      "transposons": 2884,
      "journey": 2885,
      "target": 2886,
      "northern": 2887,
      "Destroy": 2888,
      "Live2D": 2889,
      "departed": 2890,
      "100": 2891,
      "Gl": 2892,
      "Ind": 2893,
      "Py": 2894,
      "Saf": 2895,
      "Uk": 2896,
      "ce": 2897,
      "cast": 2898,
      "don": 2899,
      "dread": 2900,
      "killed": 2901,
      "lik": 2902,
      "path": 2903,
      "sel": 2904,
      "##ext": 2905,
      "##ah": 2906,
      "##aul": 2907,
      "##iber": 2908,
      "##bour": 2909,
      "##ats": 2910,
      "inh": 2911,
      "##ests": 2912,
      "##ements": 2913,
      "execut": 2914,
      "##illing": 2915,
      "##ument": 2916,
      "##arding": 2917,
      "##allel": 2918,
      "##ouncil": 2919,
      "priv": 2920,
      "##arty": 2921,
      "adap": 2922,
      "cloud": 2923,
      "1940": 2924,
      "recover": 2925,
      "perce": 2926,
      "forms": 2927,
      "decided": 2928,
      "##iously": 2929,
      "included": 2930,
      "yourself": 2931,
      "strange": 2932,
      "assoc": 2933,
      "variant": 2934,
      "region": 2935,
      "powerful": 2936,
      "secret": 2937,
      "signed": 2938,
      "officers": 2939,
      "provide": 2940,
      "techniqu": 2941,
      "turret": 2942,
      "approach": 2943,
      "redu": 2944,
      "replaced": 2945,
      "avoid": 2946,
      "escorting": 2947,
      "problem": 2948,
      "convoys": 2949,
      "motion": 2950,
      "merch": 2951,
      "week": 2952,
      "standard": 2953,
      "Army": 2954,
      "potential": 2955,
      "Valentine": 2956,
      "bitter": 2957,
      "Azur": 2958,
      "Microsoft": 2959,
      "Ukrain": 2960,
      "Eastern": 2961,
      "HMS": 2962,
      "cop": 2963,
      "mother": 2964,
      "nuc": 2965,
      "rul": 2966,
      "tun": 2967,
      "##iable": 2968,
      "##uit": 2969,
      "##cay": 2970,
      "##come": 2971,
      "##dden": 2972,
      "##ball": 2973,
      "##ünde": 2974,
      "##yn": 2975,
      "tools": 2976,
      "##aled": 2977,
      "##rown": 2978,
      "##ote": 2979,
      "##idge": 2980,
      "##cean": 2981,
      "##iment": 2982,
      "ang": 2983,
      "sudden": 2984,
      "##ulated": 2985,
      "proper": 2986,
      "seven": 2987,
      "contribut": 2988,
      "weather": 2989,
      "commissioned": 2990,
      "overall": 2991,
      "generated": 2992,
      "returning": 2993,
      "indust": 2994,
      "stranger": 2995,
      "central": 2996,
      "2019": 2997,
      "flag": 2998,
      "throughout": 2999,
      "monster": 3000,
      "bring": 3001,
      "continue": 3002,
      "assist": 3003,
      "extensive": 3004,
      "speech": 3005,
      "served": 3006,
      "terms": 3007,
      "final": 3008,
      "##horst": 3009,
      "require": 3010,
      "sailors": 3011,
      "histor": 3012,
      "fulf": 3013,
      "Poland": 3014,
      "Conv": 3015,
      "suffered": 3016,
      "Flor": 3017,
      "society": 3018,
      "Scharn": 3019,
      "Biscay": 3020,
      "local": 3021,
      "situation": 3022,
      "meaning": 3023,
      "questions": 3024,
      "temper": 3025,
      "determined": 3026,
      "##ription": 3027,
      "software": 3028,
      "vessel": 3029,
      "necessary": 3030,
      "weapons": 3031,
      "troops": 3032,
      "voyage": 3033,
      "princip": 3034,
      "Italian": 3035,
      "quickly": 3036,
      "According": 3037,
      "Spartak": 3038,
      "Scharnhorst": 3039,
      "Co": 3040,
      "Day": 3041,
      "Ed": 3042,
      "Har": 3043,
      "Hist": 3044,
      "Ira": 3045,
      "Kiel": 3046,
      "Lat": 3047,
      "Pe": 3048,
      "danger": 3049,
      "ep": 3050,
      "hour": 3051,
      "hast": 3052,
      "jud": 3053,
      "latter": 3054,
      "ran": 3055,
      "son": 3056,
      "tale": 3057,
      "wish": 3058,
      "##rated": 3059,
      "##ky": 3060,
      "##uct": 3061,
      "##cts": 3062,
      "##tr": 3063,
      "##vers": 3064,
      "##vised": 3065,
      "##bre": 3066,
      "##hr": 3067,
      "##hood": 3068,
      "##haps": 3069,
      "##hem": 3070,
      "##inated": 3071,
      "##oration": 3072,
      "##arl": 3073,
      "##omen": 3074,
      "thing": 3075,
      "third": 3076,
      "##ades": 3077,
      "##irp": 3078,
      "##ids": 3079,
      "##ayed": 3080,
      "stream": 3081,
      "##unt": 3082,
      "exch": 3083,
      "##osp": 3084,
      "##ighter": 3085,
      "##anged": 3086,
      "abs": 3087,
      "feet": 3088,
      "Z30": 3089,
      "access": 3090,
      "accident": 3091,
      "Chines": 3092,
      "carry": 3093,
      "submar": 3094,
      "actions": 3095,
      "escorts": 3096,
      "capital": 3097,
      "metres": 3098,
      "played": 3099,
      "insp": 3100,
      "2022": 3101,
      "advanced": 3102,
      "speak": 3103,
      "deliver": 3104,
      "1991": 3105,
      "##undred": 3106,
      "terror": 3107,
      "replied": 3108,
      "##inci": 3109,
      "movement": 3110,
      "multiple": 3111,
      "initial": 3112,
      "question": 3113,
      "##burg": 3114,
      "broke": 3115,
      "types": 3116,
      "spirits": 3117,
      "seemed": 3118,
      "described": 3119,
      "young": 3120,
      "Central": 3121,
      "blockade": 3122,
      "Africa": 3123,
      "Destroyer": 3124,
      "Iraq": 3125,
      "Chinese": 3126,
      "submarines": 3127,
      "38": 3128,
      "Bo": 3129,
      "Cup": 3130,
      "Egy": 3131,
      "Follow": 3132,
      "Gene": 3133,
      "Hen": 3134,
      "Mus": 3135,
      "Mob": 3136,
      "Pact": 3137,
      "Que": 3138,
      "Tirp": 3139,
      "Will": 3140,
      "custom": 3141,
      "lower": 3142,
      "mist": 3143,
      "pun": 3144,
      "pict": 3145,
      "tear": 3146,
      "trem": 3147,
      "wound": 3148,
      "walk": 3149,
      "##uous": 3150,
      "##uck": 3151,
      "##oms": 3152,
      "##ley": 3153,
      "##imag": 3154,
      "asp": 3155,
      "##eared": 3156,
      "##ips": 3157,
      "project": 3158,
      "deb": 3159,
      "ability": 3160,
      "contr": 3161,
      "##iance": 3162,
      "disapp": 3163,
      "genes": 3164,
      "Soviets": 3165,
      "related": 3166,
      "repair": 3167,
      "##duc": 3168,
      "##oney": 3169,
      "blood": 3170,
      "submarine": 3171,
      "surround": 3172,
      "##mark": 3173,
      "refit": 3174,
      "assigned": 3175,
      "advant": 3176,
      "security": 3177,
      "2005": 3178,
      "minel": 3179,
      "appearance": 3180,
      "simple": 3181,
      "increase": 3182,
      "##rawl": 3183,
      "##ucted": 3184,
      "Brest": 3185,
      "hardly": 3186,
      "despite": 3187,
      "discovery": 3188,
      "discovered": 3189,
      "directly": 3190,
      "media": 3191,
      "risks": 3192,
      "broken": 3193,
      "structure": 3194,
      "style": 3195,
      "joined": 3196,
      "FuMO": 3197,
      "exhib": 3198,
      "republics": 3199,
      "Convoy": 3200,
      "Egypt": 3201,
      "Tirpitz": 3202,
      "God": 3203,
      "Hon": 3204,
      "Im": 3205,
      "Ot": 3206,
      "Such": 3207,
      "aid": 3208,
      "aver": 3209,
      "boy": 3210,
      "cat": 3211,
      "die": 3212,
      "hold": 3213,
      "hundred": 3214,
      "lived": 3215,
      "moved": 3216,
      "sound": 3217,
      "square": 3218,
      "sisters": 3219,
      "wife": 3220,
      "##ole": 3221,
      "##sy": 3222,
      "##ae": 3223,
      "##aur": 3224,
      "##nel": 3225,
      "##gn": 3226,
      "##pan": 3227,
      "##dle": 3228,
      "##erning": 3229,
      "##inct": 3230,
      "##oring": 3231,
      "##ales": 3232,
      "##ili": 3233,
      "##ille": 3234,
      "##road": 3235,
      "##add": 3236,
      "##vey": 3237,
      "reach": 3238,
      "iss": 3239,
      "anc": 3240,
      "##estin": 3241,
      "##thing": 3242,
      "##avinci": 3243,
      "##ibr": 3244,
      "immed": 3245,
      "diss": 3246,
      "agent": 3247,
      "genome": 3248,
      "applied": 3249,
      "prepar": 3250,
      "Friday": 3251,
      "shell": 3252,
      "Univers": 3253,
      "formation": 3254,
      "remember": 3255,
      "Although": 3256,
      "actually": 3257,
      "center": 3258,
      "emb": 3259,
      "##ground": 3260,
      "goals": 3261,
      "Another": 3262,
      "purch": 3263,
      "##ancy": 3264,
      "defe": 3265,
      "famous": 3266,
      "community": 3267,
      "##teen": 3268,
      "See": 3269,
      "commonly": 3270,
      "caus": 3271,
      "elements": 3272,
      "Palestin": 3273,
      "changes": 3274,
      "spirit": 3275,
      "applications": 3276,
      "biological": 3277,
      "international": 3278,
      "agreed": 3279,
      "observed": 3280,
      "significant": 3281,
      "naval": 3282,
      "authorities": 3283,
      "hopes": 3284,
      "wretched": 3285,
      "telev": 3286,
      "President": 3287,
      "Nazi": 3288,
      "parameters": 3289,
      "capacity": 3290,
      "countenance": 3291,
      "Communist": 3292,
      "widely": 3293,
      "Following": 3294,
      "32": 3295,
      "51": 3296,
      "Me": 3297,
      "bow": 3298,
      "cold": 3299,
      "cards": 3300,
      "dro": 3301,
      "educ": 3302,
      "fat": 3303,
      "fight": 3304,
      "fast": 3305,
      "filled": 3306,
      "mention": 3307,
      "money": 3308,
      "poin": 3309,
      "rise": 3310,
      "sle": 3311,
      "ur": 3312,
      "##ein": 3313,
      "##rom": 3314,
      "##ux": 3315,
      "##ges": 3316,
      "##gor": 3317,
      "##NN": 3318,
      "##LP": 3319,
      "##ät": 3320,
      "##hest": 3321,
      "##inem": 3322,
      "##atively": 3323,
      "##orrow": 3324,
      "##arily": 3325,
      "inn": 3326,
      "##asm": 3327,
      "##uth": 3328,
      "##ida": 3329,
      "render": 3330,
      "referred": 3331,
      "##ested": 3332,
      "##estic": 3333,
      "##ainted": 3334,
      "compl": 3335,
      "##istics": 3336,
      "space": 3337,
      "neigh": 3338,
      "prison": 3339,
      "compared": 3340,
      "##ogle": 3341,
      "clos": 3342,
      "preced": 3343,
      "output": 3344,
      "Z28": 3345,
      "Z33": 3346,
      "repe": 3347,
      "transl": 3348,
      "remains": 3349,
      "board": 3350,
      "subsequ": 3351,
      "charge": 3352,
      "news": 3353,
      "flo": 3354,
      "player": 3355,
      "brief": 3356,
      "working": 3357,
      "involved": 3358,
      "sets": 3359,
      "##posons": 3360,
      "learn": 3361,
      "operated": 3362,
      "discuss": 3363,
      "efforts": 3364,
      "pursu": 3365,
      "##encies": 3366,
      "Spanish": 3367,
      "persu": 3368,
      "expect": 3369,
      "collect": 3370,
      "something": 3371,
      "expressed": 3372,
      "safe": 3373,
      "minefield": 3374,
      "demand": 3375,
      "labor": 3376,
      "letter": 3377,
      "letters": 3378,
      "summer": 3379,
      "Generative": 3380,
      "economic": 3381,
      "particularly": 3382,
      "fleet": 3383,
      "rapidly": 3384,
      "independent": 3385,
      "influence": 3386,
      "fixed": 3387,
      "emerg": 3388,
      "transformer": 3389,
      "Google": 3390,
      "Safie": 3391,
      "inhab": 3392,
      "techniques": 3393,
      "merchant": 3394,
      "Geneva": 3395,
      "69": 3396,
      "Den": 3397,
      "Huff": 3398,
      "Mc": 3399,
      "South": 3400,
      "Tor": 3401,
      "Us": 3402,
      "aud": 3403,
      "bal": 3404,
      "base": 3405,
      "dig": 3406,
      "davinci": 3407,
      "east": 3408,
      "fig": 3409,
      "fair": 3410,
      "host": 3411,
      "low": 3412,
      "mm": 3413,
      "rock": 3414,
      "wro": 3415,
      "##oad": 3416,
      "##sis": 3417,
      "##ressed": 3418,
      "##key": 3419,
      "##go": 3420,
      "##cent": 3421,
      "##tained": 3422,
      "##50": 3423,
      "##held": 3424,
      "##enge": 3425,
      "##asts": 3426,
      "##icle": 3427,
      "##ady": 3428,
      "white": 3429,
      "##cepted": 3430,
      "##ays": 3431,
      "##chimag": 3432,
      "frame": 3433,
      "##ulate": 3434,
      "shore": 3435,
      "##thy": 3436,
      "proc": 3437,
      "propos": 3438,
      "##ushed": 3439,
      "##pping": 3440,
      "##ighted": 3441,
      "unl": 3442,
      "plans": 3443,
      "plant": 3444,
      "resour": 3445,
      "##ograp": 3446,
      "evil": 3447,
      "evolution": 3448,
      "evidence": 3449,
      "knew": 3450,
      "recent": 3451,
      "perhaps": 3452,
      "generate": 3453,
      "invasion": 3454,
      "variety": 3455,
      "advers": 3456,
      "White": 3457,
      "belong": 3458,
      "signals": 3459,
      "species": 3460,
      "brother": 3461,
      "##annel": 3462,
      "conducted": 3463,
      "experience": 3464,
      "horr": 3465,
      "opportun": 3466,
      "America": 3467,
      "machines": 3468,
      "positions": 3469,
      "understanding": 3470,
      "raid": 3471,
      "Deschimag": 3472,
      "encounter": 3473,
      "summit": 3474,
      "behav": 3475,
      "behind": 3476,
      "risk": 3477,
      "application": 3478,
      "entirely": 3479,
      "pleasure": 3480,
      "recognition": 3481,
      "##aughter": 3482,
      "utter": 3483,
      "liter": 3484,
      "subreddits": 3485,
      "walls": 3486,
      "Lenin": 3487,
      "slightly": 3488,
      "superintelligence": 3489,
      "Florida": 3490,
      "Henry": 3491,
      "Huffman": 3492,
      "wrote": 3493,
      "AP": 3494,
      "Air": 3495,
      "Bel": 3496,
      "Gor": 3497,
      "Ho": 3498,
      "Jew": 3499,
      "Most": 3500,
      "Mond": 3501,
      "Royal": 3502,
      "Su": 3503,
      "Serv": 3504,
      "Somet": 3505,
      "Vict": 3506,
      "aw": 3507,
      "camp": 3508,
      "gained": 3509,
      "hon": 3510,
      "harm": 3511,
      "kil": 3512,
      "lot": 3513,
      "mal": 3514,
      "mobile": 3515,
      "ren": 3516,
      "round": 3517,
      "rout": 3518,
      "rank": 3519,
      "sense": 3520,
      "sought": 3521,
      "tax": 3522,
      "west": 3523,
      "woman": 3524,
      "##eu": 3525,
      "##rier": 3526,
      "##kai": 3527,
      "##pass": 3528,
      "##ining": 3529,
      "##anqu": 3530,
      "##ania": 3531,
      "##isode": 3532,
      "##asted": 3533,
      "thick": 3534,
      "##stein": 3535,
      "##cend": 3536,
      "really": 3537,
      "susp": 3538,
      "##abilities": 3539,
      "##umed": 3540,
      "train": 3541,
      "##aven": 3542,
      "press": 3543,
      "20th": 3544,
      "##ibly": 3545,
      "context": 3546,
      "destruction": 3547,
      "feed": 3548,
      "amm": 3549,
      "eval": 3550,
      "##ference": 3551,
      "prem": 3552,
      "grief": 3553,
      "syn": 3554,
      "relations": 3555,
      "generation": 3556,
      "endured": 3557,
      "warm": 3558,
      "strength": 3559,
      "##ossible": 3560,
      "obl": 3561,
      "brain": 3562,
      "Wars": 3563,
      "Rev": 3564,
      "products": 3565,
      "distingu": 3566,
      "services": 3567,
      "187": 3568,
      "officials": 3569,
      "concerning": 3570,
      "bacterial": 3571,
      "Allies": 3572,
      "required": 3573,
      "lexical": 3574,
      "computers": 3575,
      "organisms": 3576,
      "looked": 3577,
      "soul": 3578,
      "##riage": 3579,
      "Players": 3580,
      "changed": 3581,
      "travel": 3582,
      "additional": 3583,
      "economy": 3584,
      "covered": 3585,
      "easily": 3586,
      "meeting": 3587,
      "weeks": 3588,
      "endeavoured": 3589,
      "higher": 3590,
      "Canad": 3591,
      "investig": 3592,
      "Finland": 3593,
      "neurons": 3594,
      "George": 3595,
      "credit": 3596,
      "revenge": 3597,
      "established": 3598,
      "doubt": 3599,
      "numerous": 3600,
      "global": 3601,
      "industry": 3602,
      "William": 3603,
      "Victor": 3604,
      "53": 3605,
      "Cross": 3606,
      "Council": 3607,
      "Do": 3608,
      "Dem": 3609,
      "Ec": 3610,
      "Fle": 3611,
      "Got": 3612,
      "Gree": 3613,
      "Hol": 3614,
      "Off": 3615,
      "Party": 3616,
      "So": 3617,
      "Sup": 3618,
      "aim": 3619,
      "bed": 3620,
      "ball": 3621,
      "doc": 3622,
      "dra": 3623,
      "ess": 3624,
      "fed": 3625,
      "fif": 3626,
      "fine": 3627,
      "har": 3628,
      "ir": 3629,
      "living": 3630,
      "nar": 3631,
      "rain": 3632,
      "rage": 3633,
      "sight": 3634,
      "sick": 3635,
      "talk": 3636,
      "wre": 3637,
      "##ees": 3638,
      "##aign": 3639,
      "##no": 3640,
      "##gl": 3641,
      "##fect": 3642,
      "##iny": 3643,
      "##atform": 3644,
      "##esh": 3645,
      "##anted": 3646,
      "##aring": 3647,
      "##isf": 3648,
      "##icated": 3649,
      "##eli": 3650,
      "##adru": 3651,
      "##ama": 3652,
      "##aying": 3653,
      "stage": 3654,
      "storm": 3655,
      "##aging": 3656,
      "##iff": 3657,
      "##abled": 3658,
      "meas": 3659,
      "##ctions": 3660,
      "tranqu": 3661,
      "sport": 3662,
      "spok": 3663,
      "seized": 3664,
      "##ella": 3665,
      "##mented": 3666,
      "##ounted": 3667,
      "intended": 3668,
      "shipy": 3669,
      "resc": 3670,
      "moder": 3671,
      "screen": 3672,
      "recomm": 3673,
      "##ifications": 3674,
      "interv": 3675,
      "percent": 3676,
      "quitted": 3677,
      "quadru": 3678,
      "ended": 3679,
      "##atha": 3680,
      "parts": 3681,
      "accept": 3682,
      "bridge": 3683,
      "regular": 3684,
      "useful": 3685,
      "##ittee": 3686,
      "##elligent": 3687,
      "phase": 3688,
      "gloom": 3689,
      "slow": 3690,
      "communities": 3691,
      "experts": 3692,
      "Const": 3693,
      "terr": 3694,
      "says": 3695,
      "receive": 3696,
      "raised": 3697,
      "looking": 3698,
      "Desp": 3699,
      "estim": 3700,
      "satell": 3701,
      "occupation": 3702,
      "calm": 3703,
      "Isra": 3704,
      "legal": 3705,
      "separate": 3706,
      "mountains": 3707,
      "##force": 3708,
      "declared": 3709,
      "Agatha": 3710,
      "match": 3711,
      "##ministr": 3712,
      "Minister": 3713,
      "conversation": 3714,
      "resulted": 3715,
      "favourite": 3716,
      "turbine": 3717,
      "school": 3718,
      "Artificial": 3719,
      "title": 3720,
      "optim": 3721,
      "boilers": 3722,
      "suddenly": 3723,
      "average": 3724,
      "television": 3725,
      "Monday": 3726,
      "Sometimes": 3727,
      "campaign": 3728,
      "quadruple": 3729,
      "29": 3730,
      "500": 3731,
      "Austr": 3732,
      "Cap": 3733,
      "Ever": 3734,
      "Joh": 3735,
      "Kir": 3736,
      "Tur": 3737,
      "Tower": 3738,
      "Wil": 3739,
      "big": 3740,
      "cous": 3741,
      "cases": 3742,
      "den": 3743,
      "dut": 3744,
      "giving": 3745,
      "loved": 3746,
      "micro": 3747,
      "nine": 3748,
      "nations": 3749,
      "tort": 3750,
      "women": 3751,
      "yard": 3752,
      "##ool": 3753,
      "##laim": 3754,
      "##iest": 3755,
      "##bit": 3756,
      "##bac": 3757,
      "##wh": 3758,
      "##ening": 3759,
      "##icol": 3760,
      "##oming": 3761,
      "##omic": 3762,
      "##lying": 3763,
      "##utral": 3764,
      "##irl": 3765,
      "beam": 3766,
      "beheld": 3767,
      "##oles": 3768,
      "##aya": 3769,
      "sto": 3770,
      "##ift": 3771,
      "##abin": 3772,
      "##ander": 3773,
      "truth": 3774,
      "##ector": 3775,
      "chief": 3776,
      "##anging": 3777,
      "union": 3778,
      "inte": 3779,
      "adop": 3780,
      "webs": 3781,
      "attend": 3782,
      "1946": 3783,
      "gram": 3784,
      "grand": 3785,
      "door": 3786,
      "remaining": 3787,
      "removed": 3788,
      "includes": 3789,
      "subject": 3790,
      "surpr": 3791,
      "parents": 3792,
      "parallel": 3793,
      "instruct": 3794,
      "president": 3795,
      "##ertion": 3796,
      "##work": 3797,
      "phot": 3798,
      "drink": 3799,
      "defend": 3800,
      "examples": 3801,
      "afford": 3802,
      "allows": 3803,
      "leading": 3804,
      "construction": 3805,
      "Deut": 3806,
      "sufficient": 3807,
      "runner": 3808,
      "population": 3809,
      "Blair": 3810,
      "expression": 3811,
      "window": 3812,
      "calc": 3813,
      "situ": 3814,
      "1918": 3815,
      "Palace": 3816,
      "initially": 3817,
      "##ustrial": 3818,
      "##burgh": 3819,
      "coastal": 3820,
      "pursued": 3821,
      "scenar": 3822,
      "achieve": 3823,
      "communication": 3824,
      "methods": 3825,
      "focus": 3826,
      "music": 3827,
      "salv": 3828,
      "novel": 3829,
      "Franken": 3830,
      "##liament": 3831,
      "likely": 3832,
      "adapt": 3833,
      "Queen": 3834,
      "Honkai": 3835,
      "Denmark": 3836,
      "40": 3837,
      "65": 3838,
      "700": 3839,
      "Bet": 3840,
      "Ky": 3841,
      "La": 3842,
      "Nar": 3843,
      "Pre": 3844,
      "Rich": 3845,
      "Up": 3846,
      "Under": 3847,
      "bank": 3848,
      "cy": 3849,
      "era": 3850,
      "fro": 3851,
      "hur": 3852,
      "king": 3853,
      "mel": 3854,
      "moon": 3855,
      "master": 3856,
      "page": 3857,
      "piec": 3858,
      "sledge": 3859,
      "table": 3860,
      "wis": 3861,
      "##rer": 3862,
      "##rich": 3863,
      "##rict": 3864,
      "##aft": 3865,
      "##me": 3866,
      "##mon": 3867,
      "##men": 3868,
      "##ping": 3869,
      "##ches": 3870,
      "##bor": 3871,
      "##bled": 3872,
      "##ham": 3873,
      "##head": 3874,
      "##onstr": 3875,
      "##ores": 3876,
      "##eness": 3877,
      "##itated": 3878,
      "##ingly": 3879,
      "##ises": 3880,
      "##ashing": 3881,
      "things": 3882,
      "whis": 3883,
      "suc": 3884,
      "##uls": 3885,
      "##aint": 3886,
      "shut": 3887,
      "shaft": 3888,
      "atm": 3889,
      "##oded": 3890,
      "##unition": 3891,
      "proceeded": 3892,
      "##ivors": 3893,
      "##ume": 3894,
      "spl": 3895,
      "sex": 3896,
      "seas": 3897,
      "##alled": 3898,
      "unable": 3899,
      "unsu": 3900,
      "##ishing": 3901,
      "contem": 3902,
      "agony": 3903,
      "commerc": 3904,
      "State": 3905,
      "##ption": 3906,
      "partly": 3907,
      "consc": 3908,
      "consent": 3909,
      "Chat": 3910,
      "Char": 3911,
      "retro": 3912,
      "implement": 3913,
      "impossible": 3914,
      "industrial": 3915,
      "Arab": 3916,
      "pars": 3917,
      "passion": 3918,
      "refuge": 3919,
      "foundation": 3920,
      "continually": 3921,
      "Asia": 3922,
      "supported": 3923,
      "extrem": 3924,
      "occasion": 3925,
      "visited": 3926,
      "restored": 3927,
      "superstruct": 3928,
      "police": 3929,
      "check": 3930,
      "directed": 3931,
      "conflic": 3932,
      "confidence": 3933,
      "depth": 3934,
      "lexem": 3935,
      "progress": 3936,
      "suffer": 3937,
      "helped": 3938,
      "oppos": 3939,
      "funnel": 3940,
      "feature": 3941,
      "Before": 3942,
      "understood": 3943,
      "sky": 3944,
      "interesting": 3945,
      "groups": 3946,
      "Swinem": 3947,
      "posts": 3948,
      "devoted": 3949,
      "improved": 3950,
      "animation": 3951,
      "companion": 3952,
      "battleships": 3953,
      "pattern": 3954,
      "##useum": 3955,
      "occurred": 3956,
      "material": 3957,
      "fleets": 3958,
      "market": 3959,
      "Second": 3960,
      "mineswe": 3961,
      "football": 3962,
      "activity": 3963,
      "pursue": 3964,
      "International": 3965,
      "imagination": 3966,
      "apart": 3967,
      "tradition": 3968,
      "philosophy": 3969,
      "lovely": 3970,
      "evacu": 3971,
      "chemical": 3972,
      "consisting": 3973,
      "primary": 3974,
      "dataset": 3975,
      "reduced": 3976,
      "History": 3977,
      "advantage": 3978,
      "Ott": 3979,
      "University": 3980,
      "API": 3981,
      "Supreme": 3982,
      "John": 3983,
      "Wilhel": 3984,
      "superstructure": 3985,
      "Swinemünde": 3986,
      "80": 3987,
      "Col": 3988,
      "Crawl": 3989,
      "Fed": 3990,
      "Imp": 3991,
      "Just": 3992,
      "Mid": 3993,
      "Nations": 3994,
      "Ph": 3995,
      "Ra": 3996,
      "Sat": 3997,
      "Tok": 3998,
      "bod": 3999,
      "cou": 4000,
      "cogn": 4001,
      "drew": 4002,
      "gain": 4003,
      "games": 4004,
      "giant": 4005,
      "ign": 4006,
      "job": 4007,
      "mission": 4008,
      "matter": 4009,
      "norm": 4010,
      "sort": 4011,
      "swe": 4012,
      "vast": 4013,
      "wr": 4014,
      "##sh": 4015,
      "##lier": 4016,
      "##noon": 4017,
      "##ugh": 4018,
      "##ging": 4019,
      "##ply": 4020,
      "##bon": 4021,
      "##win": 4022,
      "##RT": 4023,
      "##orch": 4024,
      "##anian": 4025,
      "towed": 4026,
      "##isen": 4027,
      "##omin": 4028,
      "##elve": 4029,
      "##ecution": 4030,
      "##urb": 4031,
      "##otroph": 4032,
      "##irst": 4033,
      "##ami": 4034,
      "rein": 4035,
      "reve": 4036,
      "station": 4037,
      "concept": 4038,
      "consequ": 4039,
      "##agn": 4040,
      "algor": 4041,
      "fresh": 4042,
      "sure": 4043,
      "19th": 4044,
      "##illery": 4045,
      "##umb": 4046,
      "##aker": 4047,
      "spoke": 4048,
      "chall": 4049,
      "Inst": 4050,
      "places": 4051,
      "platform": 4052,
      "hero": 4053,
      "canc": 4054,
      "##rait": 4055,
      "##ogen": 4056,
      "admir": 4057,
      "ago": 4058,
      "twice": 4059,
      "twelve": 4060,
      "desired": 4061,
      "attract": 4062,
      "ampl": 4063,
      "amount": 4064,
      "perfect": 4065,
      "afternoon": 4066,
      "formal": 4067,
      "report": 4068,
      "##luded": 4069,
      "maneu": 4070,
      "undert": 4071,
      "##acteria": 4072,
      "Arch": 4073,
      "obtain": 4074,
      "parent": 4075,
      "instr": 4076,
      "artillery": 4077,
      "misfortun": 4078,
      "extent": 4079,
      "visual": 4080,
      "127": 4081,
      "courage": 4082,
      "finished": 4083,
      "confir": 4084,
      "increasing": 4085,
      "approxim": 4086,
      "Polish": 4087,
      "complete": 4088,
      "originally": 4089,
      "limit": 4090,
      "Swed": 4091,
      "proport": 4092,
      "propeller": 4093,
      "moments": 4094,
      "##ashion": 4095,
      "resulting": 4096,
      "survivors": 4097,
      "current": 4098,
      "currently": 4099,
      "cultural": 4100,
      "Ohanian": 4101,
      "Western": 4102,
      "highest": 4103,
      "badly": 4104,
      "fellow": 4105,
      "Internet": 4106,
      "victim": 4107,
      "Slav": 4108,
      "explosion": 4109,
      "soldiers": 4110,
      "suggested": 4111,
      "##ocratic": 4112,
      "associated": 4113,
      "surrounded": 4114,
      "ancient": 4115,
      "Palestinian": 4116,
      "preceding": 4117,
      "route": 4118,
      "ammunition": 4119,
      "evalu": 4120,
      "oblig": 4121,
      "Fleet": 4122,
      "wreck": 4123,
      "Despite": 4124,
      "cousin": 4125,
      "algorith": 4126,
      "misfortunes": 4127,
      "67": 4128,
      "Both": 4129,
      "Bols": 4130,
      "Cour": 4131,
      "Eston": 4132,
      "Gul": 4133,
      "Later": 4134,
      "Our": 4135,
      "Soc": 4136,
      "Since": 4137,
      "Zer": 4138,
      "batter": 4139,
      "cand": 4140,
      "draft": 4141,
      "divers": 4142,
      "daughter": 4143,
      "fashion": 4144,
      "geared": 4145,
      "girl": 4146,
      "hers": 4147,
      "hous": 4148,
      "kW": 4149,
      "key": 4150,
      "lines": 4151,
      "lives": 4152,
      "mad": 4153,
      "naut": 4154,
      "pick": 4155,
      "roll": 4156,
      "sides": 4157,
      "tast": 4158,
      "tend": 4159,
      "taking": 4160,
      "wave": 4161,
      "##rd": 4162,
      "##aj": 4163,
      "##lt": 4164,
      "##iately": 4165,
      "##nic": 4166,
      "##gg": 4167,
      "##ps": 4168,
      "##ding": 4169,
      "##be": 4170,
      "##bar": 4171,
      "##jens": 4172,
      "##örer": 4173,
      "##heer": 4174,
      "##organ": 4175,
      "##enced": 4176,
      "##aries": 4177,
      "##itan": 4178,
      "inqu": 4179,
      "toil": 4180,
      "tour": 4181,
      "##aling": 4182,
      "##reet": 4183,
      "##ici": 4184,
      "##urch": 4185,
      "##urate": 4186,
      "##stad": 4187,
      "##störer": 4188,
      "##amb": 4189,
      "##igm": 4190,
      "##iments": 4191,
      "withd": 4192,
      "suit": 4193,
      "shot": 4194,
      "showed": 4195,
      "exerc": 4196,
      "prosp": 4197,
      "##usi": 4198,
      "try": 4199,
      "spread": 4200,
      "enh": 4201,
      "chat": 4202,
      "##angers": 4203,
      "##aved": 4204,
      "##ocated": 4205,
      "unfortun": 4206,
      "##ously": 4207,
      "closed": 4208,
      "dise": 4209,
      "genetic": 4210,
      "scale": 4211,
      "1949": 4212,
      "Franc": 4213,
      "afterwards": 4214,
      "decomm": 4215,
      "earlier": 4216,
      "1933": 4217,
      "active": 4218,
      "Prime": 4219,
      "flood": 4220,
      "##ologies": 4221,
      "##ocked": 4222,
      "founded": 4223,
      "Reg": 4224,
      "##position": 4225,
      "numbers": 4226,
      "road": 4227,
      "distant": 4228,
      "2006": 4229,
      "phys": 4230,
      "concent": 4231,
      "direction": 4232,
      "request": 4233,
      "sailing": 4234,
      "creator": 4235,
      "creatures": 4236,
      "write": 4237,
      "condem": 4238,
      "statement": 4239,
      "freed": 4240,
      "horiz": 4241,
      "##afen": 4242,
      "##afjord": 4243,
      "description": 4244,
      "Scheer": 4245,
      "reality": 4246,
      "kindness": 4247,
      "satisf": 4248,
      "personal": 4249,
      "elev": 4250,
      "##awa": 4251,
      "Island": 4252,
      "cells": 4253,
      "eventually": 4254,
      "Lütjens": 4255,
      "beauty": 4256,
      "marriage": 4257,
      "connected": 4258,
      "frequency": 4259,
      "practice": 4260,
      "negative": 4261,
      "apparently": 4262,
      "basis": 4263,
      "benefit": 4264,
      "About": 4265,
      "##enhafen": 4266,
      "paper": 4267,
      "PyT": 4268,
      "Ukraine": 4269,
      "nuclear": 4270,
      "##osphere": 4271,
      "sleep": 4272,
      "pursuit": 4273,
      "inhabit": 4274,
      "resources": 4275,
      "Gorbac": 4276,
      "Service": 4277,
      "Revolution": 4278,
      "Gotenhafen": 4279,
      "tranquill": 4280,
      "shipyard": 4281,
      "integr": 4282,
      "Frankenstein": 4283,
      "commercial": 4284,
      "Zerstörer": 4285,
      "herself": 4286,
      "nautical": 4287,
      "Gorbachev": 4288,
      "600": 4289,
      "Aut": 4290,
      "Ben": 4291,
      "Bec": 4292,
      "Brem": 4293,
      "Em": 4294,
      "FAI": 4295,
      "Gu": 4296,
      "Krem": 4297,
      "Mr": 4298,
      "Mem": 4299,
      "Os": 4300,
      "Public": 4301,
      "Prem": 4302,
      "Peters": 4303,
      "Paul": 4304,
      "Rec": 4305,
      "Techn": 4306,
      "bord": 4307,
      "cle": 4308,
      "categ": 4309,
      "cabin": 4310,
      "dæ": 4311,
      "ded": 4312,
      "eager": 4313,
      "fate": 4314,
      "gather": 4315,
      "hits": 4316,
      "hyd": 4317,
      "lin": 4318,
      "lic": 4319,
      "log": 4320,
      "lack": 4321,
      "map": 4322,
      "pen": 4323,
      "pover": 4324,
      "rights": 4325,
      "takes": 4326,
      "venge": 4327,
      "wes": 4328,
      "##ook": 4329,
      "##ration": 4330,
      "##aiss": 4331,
      "##iks": 4332,
      "##nal": 4333,
      "##nest": 4334,
      "##night": 4335,
      "##uing": 4336,
      "##cast": 4337,
      "##hors": 4338,
      "##zh": 4339,
      "##zy": 4340,
      "##MA": 4341,
      "##erb": 4342,
      "##atr": 4343,
      "##anes": 4344,
      "##arc": 4345,
      "##arch": 4346,
      "today": 4347,
      "##ald": 4348,
      "##isions": 4349,
      "##reg": 4350,
      "##render": 4351,
      "##icles": 4352,
      "##ential": 4353,
      "##uries": 4354,
      "##lem": 4355,
      "##acing": 4356,
      "##acement": 4357,
      "##iring": 4358,
      "##amer": 4359,
      "##olic": 4360,
      "reb": 4361,
      "issu": 4362,
      "##agement": 4363,
      "##odo": 4364,
      "comes": 4365,
      "190": 4366,
      "##thusi": 4367,
      "excess": 4368,
      "##usion": 4369,
      "##osen": 4370,
      "##ables": 4371,
      "##umn": 4372,
      "spring": 4373,
      "send": 4374,
      "enthusi": 4375,
      "neutral": 4376,
      "##pled": 4377,
      "##que": 4378,
      "youth": 4379,
      "administr": 4380,
      "agents": 4381,
      "amid": 4382,
      "commence": 4383,
      "1948": 4384,
      "Thurs": 4385,
      "interp": 4386,
      "reprodu": 4387,
      "overcome": 4388,
      "endure": 4389,
      "Alt": 4390,
      "string": 4391,
      "centre": 4392,
      "Margar": 4393,
      "surrender": 4394,
      "objects": 4395,
      "##icket": 4396,
      "Ass": 4397,
      "supposed": 4398,
      "greatly": 4399,
      "possess": 4400,
      "possibility": 4401,
      "Why": 4402,
      "distance": 4403,
      "below": 4404,
      "beloved": 4405,
      "minor": 4406,
      "supervised": 4407,
      "##ancing": 4408,
      "armed": 4409,
      "creating": 4410,
      "waterline": 4411,
      "studies": 4412,
      "collab": 4413,
      "fully": 4414,
      "approached": 4415,
      "needs": 4416,
      "status": 4417,
      "completion": 4418,
      "saying": 4419,
      "Beau": 4420,
      "winds": 4421,
      "Design": 4422,
      "encour": 4423,
      "revers": 4424,
      "labour": 4425,
      "solve": 4426,
      "animals": 4427,
      "ideas": 4428,
      "levels": 4429,
      "General": 4430,
      "minute": 4431,
      "employed": 4432,
      "listen": 4433,
      "sources": 4434,
      "describe": 4435,
      "profess": 4436,
      "connections": 4437,
      "##aught": 4438,
      "divided": 4439,
      "significantly": 4440,
      "analysis": 4441,
      "concerns": 4442,
      "mechanisms": 4443,
      "accompl": 4444,
      "##ienced": 4445,
      "trees": 4446,
      "street": 4447,
      "tube": 4448,
      "tubes": 4449,
      "sympathy": 4450,
      "paid": 4451,
      "perceived": 4452,
      "tears": 4453,
      "immediately": 4454,
      "mentioned": 4455,
      "McC": 4456,
      "##laimed": 4457,
      "adopted": 4458,
      "situations": 4459,
      "prospect": 4460,
      "decommissioned": 4461,
      "PyTorch": 4462,
      "Bremen": 4463,
      "FAIR": 4464,
      "dæmon": 4465,
      "poverty": 4466,
      "vengeance": 4467,
      "##aissance": 4468,
      "Margaret": 4469,
      "8th": 4470,
      "90": 4471,
      "Aust": 4472,
      "Bost": 4473,
      "Cr": 4474,
      "Dep": 4475,
      "Face": 4476,
      "Gne": 4477,
      "Herm": 4478,
      "Hung": 4479,
      "Jacks": 4480,
      "Lith": 4481,
      "More": 4482,
      "Now": 4483,
      "Pac": 4484,
      "SS": 4485,
      "Square": 4486,
      "T2": 4487,
      "XP": 4488,
      "dog": 4489,
      "er": 4490,
      "faster": 4491,
      "grew": 4492,
      "hot": 4493,
      "hell": 4494,
      "hide": 4495,
      "op": 4496,
      "ocean": 4497,
      "rose": 4498,
      "rail": 4499,
      "river": 4500,
      "sorrow": 4501,
      "##oe": 4502,
      "##son": 4503,
      "##light": 4504,
      "##iro": 4505,
      "##uf": 4506,
      "##ties": 4507,
      "##taining": 4508,
      "##vous": 4509,
      "##band": 4510,
      "##house": 4511,
      "##well": 4512,
      "##writ": 4513,
      "##wise": 4514,
      "##yr": 4515,
      "##xis": 4516,
      "##12": 4517,
      "##PU": 4518,
      "##FSR": 4519,
      "##inid": 4520,
      "##inary": 4521,
      "##onic": 4522,
      "##itch": 4523,
      "##alities": 4524,
      "##rets": 4525,
      "##ication": 4526,
      "##iles": 4527,
      "##etro": 4528,
      "##adem": 4529,
      "##otic": 4530,
      "forth": 4531,
      "beings": 4532,
      "##olk": 4533,
      "##olation": 4534,
      "stay": 4535,
      "##verted": 4536,
      "alle": 4537,
      "alter": 4538,
      "sust": 4539,
      "shape": 4540,
      "##ipl": 4541,
      "proceed": 4542,
      "##oph": 4543,
      "trou": 4544,
      "trust": 4545,
      "trials": 4546,
      "spect": 4547,
      "ens": 4548,
      "##perial": 4549,
      "##aving": 4550,
      "Inc": 4551,
      "Instruct": 4552,
      "##bert": 4553,
      "##ructed": 4554,
      "planned": 4555,
      "prize": 4556,
      "intention": 4557,
      "##ishment": 4558,
      "##thern": 4559,
      "##epers": 4560,
      "##izes": 4561,
      "contain": 4562,
      "contact": 4563,
      "composed": 4564,
      "##rapped": 4565,
      "mode": 4566,
      "##action": 4567,
      "descend": 4568,
      "firm": 4569,
      "Star": 4570,
      "Stigm": 4571,
      "##ension": 4572,
      "outside": 4573,
      "gras": 4574,
      "accel": 4575,
      "remark": 4576,
      "emp": 4577,
      "escape": 4578,
      "capabilities": 4579,
      "##ternal": 4580,
      "institut": 4581,
      "Enter": 4582,
      "developing": 4583,
      "workers": 4584,
      "presence": 4585,
      "sett": 4586,
      "humanity": 4587,
      "advances": 4588,
      "extended": 4589,
      "speaking": 4590,
      "distinct": 4591,
      "vision": 4592,
      "121": 4593,
      "evening": 4594,
      "appears": 4595,
      "arrival": 4596,
      "dress": 4597,
      "driving": 4598,
      "authors": 4599,
      "mainly": 4600,
      "happened": 4601,
      "Lex": 4602,
      "Leon": 4603,
      "opening": 4604,
      "bombarded": 4605,
      "highly": 4606,
      "respond": 4607,
      "##ricane": 4608,
      "eye": 4609,
      "1990": 4610,
      "attempts": 4611,
      "computational": 4612,
      "condition": 4613,
      "Trinid": 4614,
      "reddit": 4615,
      "running": 4616,
      "ways": 4617,
      "presented": 4618,
      "Scot": 4619,
      "skills": 4620,
      "shortly": 4621,
      "revolution": 4622,
      "demonstr": 4623,
      "director": 4624,
      "believed": 4625,
      "programming": 4626,
      "existing": 4627,
      "reflect": 4628,
      "reflections": 4629,
      "##ique": 4630,
      "domestic": 4631,
      "middle": 4632,
      "value": 4633,
      "##ampions": 4634,
      "mutations": 4635,
      "heaven": 4636,
      "##porary": 4637,
      "strugg": 4638,
      "previously": 4639,
      "claimed": 4640,
      "Paris": 4641,
      "acquainted": 4642,
      "Weser": 4643,
      "moving": 4644,
      "wretch": 4645,
      "participate": 4646,
      "participated": 4647,
      "sequences": 4648,
      "accompan": 4649,
      "wonderful": 4650,
      "steps": 4651,
      "results": 4652,
      "banks": 4653,
      "##lusion": 4654,
      "##itute": 4655,
      "treaty": 4656,
      "streets": 4657,
      "choose": 4658,
      "dreams": 4659,
      "scientific": 4660,
      "departure": 4661,
      "AGI": 4662,
      "private": 4663,
      "recovered": 4664,
      "judge": 4665,
      "##trans": 4666,
      "points": 4667,
      "digital": 4668,
      "opportunity": 4669,
      "pressure": 4670,
      "satellite": 4671,
      "Austria": 4672,
      "Every": 4673,
      "surprised": 4674,
      "Deutsc": 4675,
      "Between": 4676,
      "parser": 4677,
      "sweet": 4678,
      "##ught": 4679,
      "##isenau": 4680,
      "Estonia": 4681,
      "Gulf": 4682,
      "battery": 4683,
      "unfortunate": 4684,
      "tranquillity": 4685,
      "western": 4686,
      "Gneisenau": 4687,
      "Jackson": 4688,
      "Pacific": 4689,
      "InstructGPT": 4690,
      "Stigmata": 4691,
      "Trinidad": 4692,
      "accompanied": 4693,
      "300": 4694,
      "3rd": 4695,
      "4th": 4696,
      "400": 4697,
      "79": 4698,
      "900": 4699,
      "Av": 4700,
      "App": 4701,
      "Act": 4702,
      "Alex": 4703,
      "Cor": 4704,
      "Cop": 4705,
      "Count": 4706,
      "CNN": 4707,
      "Don": 4708,
      "Doll": 4709,
      "Ear": 4710,
      "FM": 4711,
      "Found": 4712,
      "GRT": 4713,
      "Ir": 4714,
      "Its": 4715,
      "Museum": 4716,
      "Not": 4717,
      "Nav": 4718,
      "Sim": 4719,
      "Sever": 4720,
      "Tb": 4721,
      "Treat": 4722,
      "award": 4723,
      "bur": 4724,
      "bott": 4725,
      "cas": 4726,
      "cried": 4727,
      "fit": 4728,
      "got": 4729,
      "gold": 4730,
      "ham": 4731,
      "lat": 4732,
      "liber": 4733,
      "lips": 4734,
      "libr": 4735,
      "makes": 4736,
      "nut": 4737,
      "none": 4738,
      "rate": 4739,
      "rene": 4740,
      "ster": 4741,
      "squ": 4742,
      "wished": 4743,
      "##oem": 4744,
      "##off": 4745,
      "##rent": 4746,
      "##rate": 4747,
      "##kn": 4748,
      "##kov": 4749,
      "##aust": 4750,
      "##uber": 4751,
      "##uania": 4752,
      "##gment": 4753,
      "##power": 4754,
      "##via": 4755,
      "##fr": 4756,
      "##fire": 4757,
      "##48": 4758,
      "##za": 4759,
      "##zvous": 4760,
      "##OS": 4761,
      "##erted": 4762,
      "##eries": 4763,
      "##ino": 4764,
      "##ini": 4765,
      "##inal": 4766,
      "##inate": 4767,
      "##inations": 4768,
      "##athed": 4769,
      "##atural": 4770,
      "##onst": 4771,
      "##reast": 4772,
      "##asc": 4773,
      "##omed": 4774,
      "##iled": 4775,
      "##urday": 4776,
      "##acts": 4777,
      "##acted": 4778,
      "##aches": 4779,
      "##otes": 4780,
      "##otion": 4781,
      "##owing": 4782,
      "##olut": 4783,
      "Their": 4784,
      "reward": 4785,
      "rende": 4786,
      "##tsK": 4787,
      "##ulp": 4788,
      "##osl": 4789,
      "##illions": 4790,
      "##istan": 4791,
      "trade": 4792,
      "##aped": 4793,
      "##apit": 4794,
      "enl": 4795,
      "##avor": 4796,
      "##play": 4797,
      "unf": 4798,
      "intelligent": 4799,
      "abreast": 4800,
      "##eph": 4801,
      "compass": 4802,
      "##raf": 4803,
      "climate": 4804,
      "grat": 4805,
      "office": 4806,
      "relatively": 4807,
      "##ords": 4808,
      "quant": 4809,
      "quite": 4810,
      "quality": 4811,
      "Also": 4812,
      "impact": 4813,
      "carrier": 4814,
      "blasts": 4815,
      "instantly": 4816,
      "passive": 4817,
      "assured": 4818,
      "severe": 4819,
      "coop": 4820,
      "effort": 4821,
      "Ant": 4822,
      "production": 4823,
      "simply": 4824,
      "engines": 4825,
      "defined": 4826,
      "smoke": 4827,
      "promised": 4828,
      "leader": 4829,
      "technologies": 4830,
      "students": 4831,
      "conduct": 4832,
      "experienced": 4833,
      "##ropol": 4834,
      "##ropical": 4835,
      "organization": 4836,
      "Conc": 4837,
      "corp": 4838,
      "corre": 4839,
      "stars": 4840,
      "175": 4841,
      "Bradd": 4842,
      "positive": 4843,
      "excell": 4844,
      "archae": 4845,
      "launchers": 4846,
      "majority": 4847,
      "breaking": 4848,
      "##onym": 4849,
      "southern": 4850,
      "Plan": 4851,
      "formerly": 4852,
      "reflected": 4853,
      "colle": 4854,
      "companions": 4855,
      "feared": 4856,
      "earthqu": 4857,
      "patrol": 4858,
      "versions": 4859,
      "factors": 4860,
      "mutation": 4861,
      "##ributed": 4862,
      "identif": 4863,
      "painting": 4864,
      "sensations": 4865,
      "displaced": 4866,
      "agreement": 4867,
      "younger": 4868,
      "##board": 4869,
      "circum": 4870,
      "combat": 4871,
      "navig": 4872,
      "reasoning": 4873,
      "concerned": 4874,
      "illustr": 4875,
      "leadership": 4876,
      "thousands": 4877,
      "veh": 4878,
      "scenes": 4879,
      "achieved": 4880,
      "Christie": 4881,
      "transmiss": 4882,
      "violence": 4883,
      "equipment": 4884,
      "equipped": 4885,
      "Research": 4886,
      "funding": 4887,
      "##ynam": 4888,
      "Latvia": 4889,
      "People": 4890,
      "picture": 4891,
      "hundreds": 4892,
      "issue": 4893,
      "subsequently": 4894,
      "##ograph": 4895,
      "encountered": 4896,
      "kilomet": 4897,
      "premium": 4898,
      "Warsaw": 4899,
      "Greek": 4900,
      "fifteen": 4901,
      "rescued": 4902,
      "website": 4903,
      "instructions": 4904,
      "Richard": 4905,
      "Upon": 4906,
      "atmosphere": 4907,
      "ChatGPT": 4908,
      "conflict": 4909,
      "Saturday": 4910,
      "bodies": 4911,
      "Bolshev": 4912,
      "Court": 4913,
      "candid": 4914,
      "disease": 4915,
      "Because": 4916,
      "Thursday": 4917,
      "Lithuania": 4918,
      "acceler": 4919,
      "Several": 4920,
      "TbtsK": 4921,
      "rendezvous": 4922,
      "Braddock": 4923,
      "3D": 4924,
      "46": 4925,
      "57": 4926,
      "72": 4927,
      "Axis": 4928,
      "Cz": 4929,
      "Ep": 4930,
      "Even": 4931,
      "GH": 4932,
      "Govern": 4933,
      "Hood": 4934,
      "James": 4935,
      "Katr": 4936,
      "Lar": 4937,
      "Mo": 4938,
      "Mich": 4939,
      "Of": 4940,
      "Rice": 4941,
      "Sund": 4942,
      "Saint": 4943,
      "UK": 4944,
      "Washing": 4945,
      "aug": 4946,
      "cities": 4947,
      "crow": 4948,
      "counter": 4949,
      "dial": 4950,
      "et": 4951,
      "eat": 4952,
      "fem": 4953,
      "fog": 4954,
      "killing": 4955,
      "lif": 4956,
      "lie": 4957,
      "lasted": 4958,
      "mess": 4959,
      "mast": 4960,
      "nit": 4961,
      "nomin": 4962,
      "pack": 4963,
      "rounds": 4964,
      "tree": 4965,
      "tank": 4966,
      "ult": 4967,
      "vent": 4968,
      "vac": 4969,
      "yd": 4970,
      "##of": 4971,
      "##och": 4972,
      "##opping": 4973,
      "##eas": 4974,
      "##ael": 4975,
      "##lip": 4976,
      "##uish": 4977,
      "##mers": 4978,
      "##pace": 4979,
      "##tic": 4980,
      "##vant": 4981,
      "##dered": 4982,
      "##bat": 4983,
      "##hatt": 4984,
      "##42": 4985,
      "##yond": 4986,
      "##jud": 4987,
      "##än": 4988,
      "##atives": 4989,
      "##onse": 4990,
      "##itate": 4991,
      "##enty": 4992,
      "##rogen": 4993,
      "##adium": 4994,
      "forest": 4995,
      "forget": 4996,
      "beyond": 4997,
      "##idel": 4998,
      "##ersed": 4999,
      "##igue": 5000,
      "reform": 5001,
      "##imal": 5002,
      "##imod": 5003,
      "stret": 5004,
      "standing": 5005,
      "anx": 5006,
      "##agen": 5007,
      "##agers": 5008,
      "altern": 5009,
      "fruit": 5010,
      "##ipp": 5011,
      "##odes": 5012,
      "##ivity": 5013,
      "##abil": 5014,
      "##istry": 5015,
      "depr": 5016,
      "##anded": 5017,
      "##apse": 5018,
      "arms": 5019,
      "Inter": 5020,
      "##ovak": 5021,
      "##berg": 5022,
      "##rupp": 5023,
      "##ocks": 5024,
      "unp": 5025,
      "pled": 5026,
      "prior": 5027,
      "##astic": 5028,
      "resist": 5029,
      "alliance": 5030,
      "##ignment": 5031,
      "weak": 5032,
      "wealth": 5033,
      "agree": 5034,
      "aground": 5035,
      "fever": 5036,
      "desert": 5037,
      "score": 5038,
      "sched": 5039,
      "scarc": 5040,
      "##ubar": 5041,
      "upgr": 5042,
      "amb": 5043,
      "amounts": 5044,
      "amiable": 5045,
      "commit": 5046,
      "commission": 5047,
      "Stud": 5048,
      "recoll": 5049,
      "Thus": 5050,
      "Once": 5051,
      "interact": 5052,
      "intercepted": 5053,
      "mostly": 5054,
      "grad": 5055,
      "doing": 5056,
      "managed": 5057,
      "transfer": 5058,
      "quar": 5059,
      "quit": 5060,
      "noble": 5061,
      "carbon": 5062,
      "1935": 5063,
      "emph": 5064,
      "surpass": 5065,
      "obtained": 5066,
      "2012": 5067,
      "instant": 5068,
      "instruction": 5069,
      "metab": 5070,
      "passage": 5071,
      "playing": 5072,
      "deton": 5073,
      "detected": 5074,
      "developers": 5075,
      "worked": 5076,
      "hearing": 5077,
      "setting": 5078,
      "regions": 5079,
      "regarded": 5080,
      "advent": 5081,
      "extreme": 5082,
      "signal": 5083,
      "##ribution": 5084,
      "arriving": 5085,
      "officially": 5086,
      "##ancial": 5087,
      "serve": 5088,
      "Prince": 5089,
      "##azed": 5090,
      "steady": 5091,
      "films": 5092,
      "bombs": 5093,
      "requires": 5094,
      "response": 5095,
      "curios": 5096,
      "Committee": 5097,
      "constitution": 5098,
      "considerable": 5099,
      "writing": 5100,
      "justice": 5101,
      "Dean": 5102,
      "Deep": 5103,
      "planning": 5104,
      "Schoem": 5105,
      "deeply": 5106,
      "successor": 5107,
      "successful": 5108,
      "controlled": 5109,
      "launch": 5110,
      "equal": 5111,
      "##essional": 5112,
      "addressed": 5113,
      "Shar": 5114,
      "labours": 5115,
      "animal": 5116,
      "laws": 5117,
      "##itzer": 5118,
      "located": 5119,
      "1917": 5120,
      "tokenization": 5121,
      "difficulty": 5122,
      "typically": 5123,
      "Group": 5124,
      "structures": 5125,
      "uncertain": 5126,
      "testing": 5127,
      "mountain": 5128,
      "massive": 5129,
      "pleasant": 5130,
      "cultiv": 5131,
      "double": 5132,
      "career": 5133,
      "policies": 5134,
      "Secret": 5135,
      "fields": 5136,
      "analyz": 5137,
      "commander": 5138,
      "frequently": 5139,
      "Manhatt": 5140,
      "movie": 5141,
      "416": 5142,
      "capture": 5143,
      "FuMB": 5144,
      "semicol": 5145,
      "Among": 5146,
      "civilians": 5147,
      "399": 5148,
      "critic": 5149,
      "missed": 5150,
      "electron": 5151,
      "wait": 5152,
      "robust": 5153,
      "sinking": 5154,
      "sculpture": 5155,
      "Berlin": 5156,
      "ethnic": 5157,
      "respectively": 5158,
      "anguish": 5159,
      "property": 5160,
      "flagship": 5161,
      "shells": 5162,
      "laboratory": 5163,
      "honour": 5164,
      "renamed": 5165,
      "synt": 5166,
      "Canada": 5167,
      "Eclip": 5168,
      "Kirwin": 5169,
      "Narv": 5170,
      "split": 5171,
      "conscious": 5172,
      "Ottawa": 5173,
      "couple": 5174,
      "maneuver": 5175,
      "undertaking": 5176,
      "approximately": 5177,
      "Social": 5178,
      "houses": 5179,
      "##stadt": 5180,
      "condemned": 5181,
      "Zerstörerfl": 5182,
      "hydroph": 5183,
      "issues": 5184,
      "collaboration": 5185,
      "Hermann": 5186,
      "Hungary": 5187,
      "Enterprise": 5188,
      "Treaty": 5189,
      "##ropolitan": 5190,
      "Czech": 5191,
      "Katrina": 5192,
      "Sunday": 5193,
      "Washington": 5194,
      "crowd": 5195,
      "scarcely": 5196,
      "Schoemann": 5197,
      "Manhattan": 5198,
      "Eclipse": 5199,
      "02": 5200,
      "45": 5201,
      "54": 5202,
      "64": 5203,
      "62": 5204,
      "63": 5205,
      "800": 5206,
      "Bacteria": 5207,
      "CE": 5208,
      "Car": 5209,
      "Cong": 5210,
      "Further": 5211,
      "Ger": 5212,
      "Mont": 5213,
      "Mubar": 5214,
      "Ob": 5215,
      "Over": 5216,
      "Ocean": 5217,
      "PS": 5218,
      "Sir": 5219,
      "Soon": 5220,
      "Sno": 5221,
      "SFSR": 5222,
      "Valk": 5223,
      "Web": 5224,
      "Yost": 5225,
      "Z4": 5226,
      "Z7": 5227,
      "Z1": 5228,
      "aston": 5229,
      "bag": 5230,
      "breat": 5231,
      "craft": 5232,
      "du": 5233,
      "date": 5234,
      "furn": 5235,
      "fiction": 5236,
      "green": 5237,
      "hither": 5238,
      "huge": 5239,
      "lose": 5240,
      "link": 5241,
      "liqu": 5242,
      "lux": 5243,
      "psy": 5244,
      "sac": 5245,
      "vain": 5246,
      "wear": 5247,
      "##eper": 5248,
      "##rence": 5249,
      "##ki": 5250,
      "##aud": 5251,
      "##lam": 5252,
      "##iary": 5253,
      "##uz": 5254,
      "##pond": 5255,
      "##chev": 5256,
      "##NT": 5257,
      "##vol": 5258,
      "##fall": 5259,
      "##back": 5260,
      "##haven": 5261,
      "##wide": 5262,
      "##wood": 5263,
      "##whel": 5264,
      "##zen": 5265,
      "##xic": 5266,
      "##LO": 5267,
      "##Es": 5268,
      "##orial": 5269,
      "##orious": 5270,
      "##ana": 5271,
      "##anch": 5272,
      "##arus": 5273,
      "##isl": 5274,
      "##isition": 5275,
      "##eck": 5276,
      "##rose": 5277,
      "##ado": 5278,
      "online": 5279,
      "##othes": 5280,
      "forec": 5281,
      "forcing": 5282,
      "##amples": 5283,
      "rej": 5284,
      "stop": 5285,
      "stories": 5286,
      "anime": 5287,
      "##embr": 5288,
      "##uled": 5289,
      "shp": 5290,
      "shad": 5291,
      "share": 5292,
      "shield": 5293,
      "atomic": 5294,
      "exact": 5295,
      "exped": 5296,
      "##uses": 5297,
      "##uman": 5298,
      "deploy": 5299,
      "notable": 5300,
      "##andon": 5301,
      "##ectures": 5302,
      "spend": 5303,
      "##ieval": 5304,
      "seat": 5305,
      "ener": 5306,
      "chance": 5307,
      "##anga": 5308,
      "##ellect": 5309,
      "Int": 5310,
      "save": 5311,
      "##ocol": 5312,
      "unh": 5313,
      "united": 5314,
      "leaves": 5315,
      "resolution": 5316,
      "residence": 5317,
      "abandon": 5318,
      "compar": 5319,
      "##iedrich": 5320,
      "incor": 5321,
      "clock": 5322,
      "dism": 5323,
      "disput": 5324,
      "agitation": 5325,
      "agencies": 5326,
      "Str": 5327,
      "Strait": 5328,
      "prep": 5329,
      "Front": 5330,
      "Friedrich": 5331,
      "interru": 5332,
      "symb": 5333,
      "relig": 5334,
      "modeling": 5335,
      "decre": 5336,
      "manners": 5337,
      "overwhel": 5338,
      "ending": 5339,
      "Channel": 5340,
      "warships": 5341,
      "retrie": 5342,
      "actual": 5343,
      "newly": 5344,
      "gunfire": 5345,
      "anything": 5346,
      "Pruss": 5347,
      "2014": 5348,
      "2011": 5349,
      "##ologist": 5350,
      "passeng": 5351,
      "Adv": 5352,
      "regarding": 5353,
      "orders": 5354,
      "serving": 5355,
      "Spain": 5356,
      "simpl": 5357,
      "chee": 5358,
      "finally": 5359,
      "financial": 5360,
      "affected": 5361,
      "allowing": 5362,
      "army": 5363,
      "constant": 5364,
      "technical": 5365,
      "turning": 5366,
      "turrets": 5367,
      "##onomous": 5368,
      "needed": 5369,
      "##ointment": 5370,
      "##suing": 5371,
      "corpor": 5372,
      "finding": 5373,
      "moral": 5374,
      "excited": 5375,
      "plants": 5376,
      "Switzer": 5377,
      "performance": 5378,
      "ready": 5379,
      "magaz": 5380,
      "1914": 5381,
      "values": 5382,
      "changing": 5383,
      "##armament": 5384,
      "alongside": 5385,
      "Prov": 5386,
      "Gram": 5387,
      "certainly": 5388,
      "effectively": 5389,
      "mathem": 5390,
      "marked": 5391,
      "displacement": 5392,
      "##minster": 5393,
      "utility": 5394,
      "predict": 5395,
      "predecess": 5396,
      "enjoyed": 5397,
      "vessels": 5398,
      "practical": 5399,
      "sequence": 5400,
      "Westminster": 5401,
      "drawing": 5402,
      "Christian": 5403,
      "Transposons": 5404,
      "magnitude": 5405,
      "virtue": 5406,
      "electr": 5407,
      "benefits": 5408,
      "##enhagen": 5409,
      "derived": 5410,
      "focused": 5411,
      "immig": 5412,
      "scientists": 5413,
      "silence": 5414,
      "protectors": 5415,
      "involving": 5416,
      "territory": 5417,
      "territories": 5418,
      "ceased": 5419,
      "dreadful": 5420,
      "Latin": 5421,
      "sonar": 5422,
      "carrying": 5423,
      "##ucking": 5424,
      "minelaying": 5425,
      "##iliar": 5426,
      "defeat": 5427,
      "causing": 5428,
      "education": 5429,
      "figure": 5430,
      "utterly": 5431,
      "Belarus": 5432,
      "Holy": 5433,
      "distinguished": 5434,
      "recommend": 5435,
      "estimated": 5436,
      "Turk": 5437,
      "grammar": 5438,
      "succeeded": 5439,
      "Arabian": 5440,
      "extremely": 5441,
      "lexeme": 5442,
      "minesweepers": 5443,
      "Impact": 5444,
      "consequences": 5445,
      "admiration": 5446,
      "confirmed": 5447,
      "proportion": 5448,
      "Petersburg": 5449,
      "Technology": 5450,
      "clean": 5451,
      "Austral": 5452,
      "institutions": 5453,
      "Leonard": 5454,
      "Copenhagen": 5455,
      "County": 5456,
      "Naval": 5457,
      "bottom": 5458,
      "stere": 5459,
      "##apitän": 5460,
      "excellent": 5461,
      "circumst": 5462,
      "GHG": 5463,
      "pledge": 5464,
      "emphas": 5465,
      "curiosity": 5466,
      "Narvik": 5467,
      "Gerät": 5468,
      "Mubarak": 5469,
      "Valky": 5470,
      "Yostar": 5471,
      "Switzerland": 5472,
      "Ac": 5473,
      "Bu": 5474,
      "Bre": 5475,
      "Big": 5476,
      "Cal": 5477,
      "Cher": 5478,
      "Cont": 5479,
      "Camer": 5480,
      "Dan": 5481,
      "Due": 5482,
      "Eth": 5483,
      "Grupp": 5484,
      "Ham": 5485,
      "Khr": 5486,
      "Mel": 5487,
      "Net": 5488,
      "Nad": 5489,
      "Oly": 5490,
      "Old": 5491,
      "Per": 5492,
      "River": 5493,
      "Syd": 5494,
      "Var": 5495,
      "arose": 5496,
      "bay": 5497,
      "bree": 5498,
      "born": 5499,
      "dil": 5500,
      "dim": 5501,
      "dared": 5502,
      "fancy": 5503,
      "gall": 5504,
      "hus": 5505,
      "hired": 5506,
      "lake": 5507,
      "mix": 5508,
      "rig": 5509,
      "race": 5510,
      "rails": 5511,
      "ton": 5512,
      "tropical": 5513,
      "voted": 5514,
      "wel": 5515,
      "wanted": 5516,
      "##oes": 5517,
      "##ef": 5518,
      "##eau": 5519,
      "##rad": 5520,
      "##ram": 5521,
      "##ko": 5522,
      "##ked": 5523,
      "##let": 5524,
      "##ius": 5525,
      "##ixt": 5526,
      "##gely": 5527,
      "##pread": 5528,
      "##cks": 5529,
      "##tes": 5530,
      "##AR": 5531,
      "##yo": 5532,
      "##BC": 5533,
      "##erd": 5534,
      "##eder": 5535,
      "##atar": 5536,
      "##onents": 5537,
      "##orse": 5538,
      "##enhor": 5539,
      "##ancho": 5540,
      "##ari": 5541,
      "##itar": 5542,
      "##iture": 5543,
      "inher": 5544,
      "tool": 5545,
      "toward": 5546,
      "tower": 5547,
      "toxic": 5548,
      "##iser": 5549,
      "##rey": 5550,
      "##reich": 5551,
      "##omer": 5552,
      "threw": 5553,
      "##ented": 5554,
      "##entions": 5555,
      "##entially": 5556,
      "##ilst": 5557,
      "##adron": 5558,
      "##oting": 5559,
      "##otille": 5560,
      "##irth": 5561,
      "beat": 5562,
      "whilst": 5563,
      "##imately": 5564,
      "asse": 5565,
      "stock": 5566,
      "stages": 5567,
      "##vert": 5568,
      "conj": 5569,
      "##chger": 5570,
      "fright": 5571,
      "##essive": 5572,
      "##ulations": 5573,
      "shr": 5574,
      "shock": 5575,
      "shopping": 5576,
      "coming": 5577,
      "comments": 5578,
      "##unch": 5579,
      "exceed": 5580,
      "execution": 5581,
      "prote": 5582,
      "##istol": 5583,
      "notably": 5584,
      "tra": 5585,
      "##ermel": 5586,
      "spons": 5587,
      "ensuing": 5588,
      "cham": 5589,
      "chain": 5590,
      "chair": 5591,
      "##perate": 5592,
      "useless": 5593,
      "##ova": 5594,
      "unique": 5595,
      "##arters": 5596,
      "shipping": 5597,
      "##gend": 5598,
      "##iants": 5599,
      "incident": 5600,
      "soil": 5601,
      "solem": 5602,
      "weight": 5603,
      "clic": 5604,
      "modified": 5605,
      "disp": 5606,
      "destiny": 5607,
      "aggr": 5608,
      "scored": 5609,
      "amuse": 5610,
      "becoming": 5611,
      "prefer": 5612,
      "shel": 5613,
      "somewh": 5614,
      "reload": 5615,
      "accurate": 5616,
      "generating": 5617,
      "Alas": 5618,
      "retired": 5619,
      "box": 5620,
      "strateg": 5621,
      "blue": 5622,
      "actors": 5623,
      "tender": 5624,
      "obsc": 5625,
      "parliament": 5626,
      "largely": 5627,
      "2010": 5628,
      "##hips": 5629,
      "detail": 5630,
      "detection": 5631,
      "owners": 5632,
      "continues": 5633,
      "severely": 5634,
      "Complet": 5635,
      "##poses": 5636,
      "operating": 5637,
      "purposes": 5638,
      "2009": 5639,
      "restaur": 5640,
      "Force": 5641,
      "188": 5642,
      "arrive": 5643,
      "engage": 5644,
      "##ancell": 5645,
      "##anches": 5646,
      "delayed": 5647,
      "familiar": 5648,
      "construct": 5649,
      "##respond": 5650,
      "conditions": 5651,
      "enterprise": 5652,
      "III": 5653,
      "Poles": 5654,
      "experiment": 5655,
      "organic": 5656,
      "teams": 5657,
      "correspond": 5658,
      "protection": 5659,
      "exclus": 5660,
      "receiver": 5661,
      "##ushchev": 5662,
      "landed": 5663,
      "limbs": 5664,
      "devices": 5665,
      "programs": 5666,
      "medieval": 5667,
      "performed": 5668,
      "reflection": 5669,
      "layer": 5670,
      "magistr": 5671,
      "benevol": 5672,
      "behold": 5673,
      "transposase": 5674,
      "easier": 5675,
      "occurs": 5676,
      "typical": 5677,
      "seems": 5678,
      "legisl": 5679,
      "Grand": 5680,
      "##appy": 5681,
      "uncle": 5682,
      "heavily": 5683,
      "declined": 5684,
      "##apsed": 5685,
      "answ": 5686,
      "internal": 5687,
      "effective": 5688,
      "conceive": 5689,
      "observ": 5690,
      "Center": 5691,
      "argued": 5692,
      "independence": 5693,
      "potentially": 5694,
      "styles": 5695,
      "precip": 5696,
      "improvements": 5697,
      "captured": 5698,
      "negl": 5699,
      "victory": 5700,
      "emerged": 5701,
      "environmental": 5702,
      "engineering": 5703,
      "magnific": 5704,
      "schools": 5705,
      "expressions": 5706,
      "celebr": 5707,
      "ardent": 5708,
      "Glas": 5709,
      "executive": 5710,
      "rules": 5711,
      "tuning": 5712,
      "contributed": 5713,
      "fulfil": 5714,
      "episode": 5715,
      "##brev": 5716,
      "##break": 5717,
      "inspired": 5718,
      "pictures": 5719,
      "wounded": 5720,
      "aspect": 5721,
      "contrast": 5722,
      "minelayers": 5723,
      "catast": 5724,
      "purchase": 5725,
      "fighting": 5726,
      "urged": 5727,
      "neighbour": 5728,
      "translation": 5729,
      "briefly": 5730,
      "proposed": 5731,
      "behavior": 5732,
      "federal": 5733,
      "Israeli": 5734,
      "##forcement": 5735,
      "Captain": 5736,
      "torture": 5737,
      "scenario": 5738,
      "adaptation": 5739,
      "Kyodo": 5740,
      "kingdom": 5741,
      "pieces": 5742,
      "unsuccess": 5743,
      "refugees": 5744,
      "sufferings": 5745,
      "Raeder": 5746,
      "Tokyo": 5747,
      "challeng": 5748,
      "Slavic": 5749,
      "licens": 5750,
      "enthusiasm": 5751,
      "interpret": 5752,
      "Altafjord": 5753,
      "Assoc": 5754,
      "opin": 5755,
      "##ufact": 5756,
      "casual": 5757,
      "##oslovak": 5758,
      "earthquake": 5759,
      "Government": 5760,
      "nominally": 5761,
      "tanker": 5762,
      "hydrophones": 5763,
      "Czechoslovak": 5764,
      "Snoo": 5765,
      "dupl": 5766,
      "hitherto": 5767,
      "psych": 5768,
      "shields": 5769,
      "incorpor": 5770,
      "mathemat": 5771,
      "electrical": 5772,
      "Leonardo": 5773,
      "Gruppenhor": 5774,
      "Khrushchev": 5775,
      "Sydney": 5776,
      "husband": 5777,
      "##ancholy": 5778,
      "##chgerät": 5779,
      "solemn": 5780,
      "somewhat": 5781,
      "magistrate": 5782,
      "Gruppenhorchgerät": 5783,
      "09": 5784,
      "06": 5785,
      "49": 5786,
      "52": 5787,
      "58": 5788,
      "Ban": 5789,
      "Bord": 5790,
      "Bucking": 5791,
      "Civil": 5792,
      "Culp": 5793,
      "Each": 5794,
      "FC": 5795,
      "Gre": 5796,
      "Gold": 5797,
      "GPU": 5798,
      "Kore": 5799,
      "Med": 5800,
      "Mik": 5801,
      "Never": 5802,
      "NLP": 5803,
      "Opp": 5804,
      "PQ": 5805,
      "Park": 5806,
      "Room": 5807,
      "Sk": 5808,
      "San": 5809,
      "SSR": 5810,
      "Ts": 5811,
      "Ter": 5812,
      "Tens": 5813,
      "Vl": 5814,
      "Wall": 5815,
      "Wales": 5816,
      "cod": 5817,
      "card": 5818,
      "cry": 5819,
      "coin": 5820,
      "cross": 5821,
      "dust": 5822,
      "dict": 5823,
      "ed": 5824,
      "fer": 5825,
      "fought": 5826,
      "gas": 5827,
      "gro": 5828,
      "hat": 5829,
      "hate": 5830,
      "hall": 5831,
      "hyp": 5832,
      "jum": 5833,
      "kill": 5834,
      "kids": 5835,
      "lively": 5836,
      "manga": 5837,
      "overs": 5838,
      "ought": 5839,
      "pity": 5840,
      "pose": 5841,
      "pairs": 5842,
      "row": 5843,
      "rip": 5844,
      "royal": 5845,
      "sen": 5846,
      "sounds": 5847,
      "tell": 5848,
      "tens": 5849,
      "vill": 5850,
      "wed": 5851,
      "yield": 5852,
      "zur": 5853,
      "##een": 5854,
      "##kind": 5855,
      "##aill": 5856,
      "##iy": 5857,
      "##iations": 5858,
      "##ny": 5859,
      "##uce": 5860,
      "##uits": 5861,
      "##mes": 5862,
      "##gu": 5863,
      "##gow": 5864,
      "##cle": 5865,
      "##the": 5866,
      "##tled": 5867,
      "##ville": 5868,
      "##bling": 5869,
      "##xy": 5870,
      "##10": 5871,
      "##ero": 5872,
      "##inent": 5873,
      "##inks": 5874,
      "##inction": 5875,
      "##inburgh": 5876,
      "##itu": 5877,
      "##itness": 5878,
      "tow": 5879,
      "##rees": 5880,
      "##reated": 5881,
      "##iced": 5882,
      "throw": 5883,
      "##iling": 5884,
      "##urbed": 5885,
      "##ache": 5886,
      "##acher": 5887,
      "waste": 5888,
      "beg": 5889,
      "whites": 5890,
      "Then": 5891,
      "##agues": 5892,
      "##emony": 5893,
      "frag": 5894,
      "comment": 5895,
      "##unk": 5896,
      "pros": 5897,
      "##ifying": 5898,
      "hair": 5899,
      "##pper": 5900,
      "noted": 5901,
      "##ctic": 5902,
      "trial": 5903,
      "track": 5904,
      "traff": 5905,
      "##aph": 5906,
      "##arden": 5907,
      "spr": 5908,
      "enorm": 5909,
      "enabled": 5910,
      "chosen": 5911,
      "neither": 5912,
      "##rud": 5913,
      "uns": 5914,
      "intellect": 5915,
      "##artz": 5916,
      "legend": 5917,
      "##ibi": 5918,
      "worth": 5919,
      "resumed": 5920,
      "abhor": 5921,
      "abbrev": 5922,
      "contains": 5923,
      "comply": 5924,
      "compounds": 5925,
      "##inds": 5926,
      "incidents": 5927,
      "adm": 5928,
      "web": 5929,
      "disabled": 5930,
      "twenty": 5931,
      "upd": 5932,
      "attended": 5933,
      "firing": 5934,
      "Ste": 5935,
      "Step": 5936,
      "knocked": 5937,
      "recept": 5938,
      "reconn": 5939,
      "pret": 5940,
      "interface": 5941,
      "relative": 5942,
      "manip": 5943,
      "manufact": 5944,
      "accustom": 5945,
      "overh": 5946,
      "##formation": 5947,
      "remembr": 5948,
      "subst": 5949,
      "survey": 5950,
      "Arbat": 5951,
      "Arado": 5952,
      "Arctic": 5953,
      "airport": 5954,
      "diff": 5955,
      "obv": 5956,
      "park": 5957,
      "installed": 5958,
      "looks": 5959,
      "details": 5960,
      "article": 5961,
      "academ": 5962,
      "monit": 5963,
      "brand": 5964,
      "branches": 5965,
      "preserve": 5966,
      "continuous": 5967,
      "inside": 5968,
      "insertion": 5969,
      "Comp": 5970,
      "variants": 5971,
      "regret": 5972,
      "friendly": 5973,
      "cool": 5974,
      "advance": 5975,
      "possibly": 5976,
      "everything": 5977,
      "efficient": 5978,
      "buy": 5979,
      "2008": 5980,
      "visible": 5981,
      "visibility": 5982,
      "mighty": 5983,
      "radiation": 5984,
      "Sports": 5985,
      "arranged": 5986,
      "differences": 5987,
      "conclusion": 5988,
      "happen": 5989,
      "defense": 5990,
      "entr": 5991,
      "seriously": 5992,
      "##azon": 5993,
      "cheer": 5994,
      "steamed": 5995,
      "else": 5996,
      "elected": 5997,
      "statements": 5998,
      "Polit": 5999,
      "freighter": 6000,
      "older": 6001,
      "functions": 6002,
      "guest": 6003,
      "runners": 6004,
      "featured": 6005,
      "17th": 6006,
      "portion": 6007,
      "exclaimed": 6008,
      "##attered": 6009,
      "raise": 6010,
      "Blake": 6011,
      "interested": 6012,
      "1953": 6013,
      "review": 6014,
      "address": 6015,
      "crip": 6016,
      "solid": 6017,
      "solitude": 6018,
      "buildings": 6019,
      "rooms": 6020,
      "##rients": 6021,
      "bestow": 6022,
      "performing": 6023,
      "##idespread": 6024,
      "animated": 6025,
      "color": 6026,
      "pleased": 6027,
      "domain": 6028,
      "domains": 6029,
      "fears": 6030,
      "midnight": 6031,
      "viewed": 6032,
      "faces": 6033,
      "transposon": 6034,
      "eastern": 6035,
      "represented": 6036,
      "1960s": 6037,
      "mutual": 6038,
      "1922": 6039,
      "heavens": 6040,
      "separated": 6041,
      "identify": 6042,
      "fallen": 6043,
      "sensation": 6044,
      "cottagers": 6045,
      "conceived": 6046,
      "Security": 6047,
      "videos": 6048,
      "##book": 6049,
      "circuit": 6050,
      "predic": 6051,
      "accordingly": 6052,
      "journal": 6053,
      "competition": 6054,
      "volunt": 6055,
      "Amazon": 6056,
      "starting": 6057,
      "winter": 6058,
      "impressed": 6059,
      "perman": 6060,
      "basic": 6061,
      "critical": 6062,
      "missing": 6063,
      "treatment": 6064,
      "transmission": 6065,
      "turbines": 6066,
      "Barents": 6067,
      "Barbar": 6068,
      "universe": 6069,
      "evacuation": 6070,
      "watching": 6071,
      "silent": 6072,
      "fortune": 6073,
      "responsible": 6074,
      "celebrated": 6075,
      "paused": 6076,
      "datasets": 6077,
      "cease": 6078,
      "select": 6079,
      "selection": 6080,
      "clouds": 6081,
      "nucle": 6082,
      "assistance": 6083,
      "temperature": 6084,
      "principal": 6085,
      "principles": 6086,
      "Edinburgh": 6087,
      "exchange": 6088,
      "exchanged": 6089,
      "accidentally": 6090,
      "aspects": 6091,
      "disappointment": 6092,
      "Imperial": 6093,
      "reaching": 6094,
      "issued": 6095,
      "321": 6096,
      "fatigue": 6097,
      "closely": 6098,
      "emergency": 6099,
      "horrible": 6100,
      "behavi": 6101,
      "drawn": 6102,
      "narr": 6103,
      "spokes": 6104,
      "spoken": 6105,
      "stopped": 6106,
      "hurricane": 6107,
      "melancholy": 6108,
      "whiskey": 6109,
      "patterns": 6110,
      "cognitive": 6111,
      "ignor": 6112,
      "wrong": 6113,
      "##otrophic": 6114,
      "instruments": 6115,
      "increasingly": 6116,
      "Swedish": 6117,
      "algorithms": 6118,
      "picked": 6119,
      "withdraw": 6120,
      "enhance": 6121,
      "Premier": 6122,
      "categories": 6123,
      "Beaufort": 6124,
      "reverse": 6125,
      "professor": 6126,
      "accomplish": 6127,
      "Bostrom": 6128,
      "Facebook": 6129,
      "dogs": 6130,
      "hideous": 6131,
      "grasp": 6132,
      "##transposons": 6133,
      "Earth": 6134,
      "Foundation": 6135,
      "latest": 6136,
      "library": 6137,
      "nutrients": 6138,
      "compassion": 6139,
      "Episode": 6140,
      "Large": 6141,
      "augmented": 6142,
      "etc": 6143,
      "lifeless": 6144,
      "nitrogen": 6145,
      "##imodal": 6146,
      "quarter": 6147,
      "Congress": 6148,
      "liquid": 6149,
      "forecast": 6150,
      "unhappy": 6151,
      "stereot": 6152,
      "Cameron": 6153,
      "Nadal": 6154,
      "frightful": 6155,
      "Glasgow": 6156,
      "Buckingham": 6157,
      "whitespace": 6158,
      "traffic": 6159,
      "reconnaissance": 6160,
      "accustomed": 6161,
      "01": 6162,
      "48": 6163,
      "66": 6164,
      "AM": 6165,
      "Are": 6166,
      "Bro": 6167,
      "Cy": 6168,
      "CO": 6169,
      "Cur": 6170,
      "Cle": 6171,
      "Cold": 6172,
      "Dav": 6173,
      "Ev": 6174,
      "Fore": 6175,
      "Fort": 6176,
      "First": 6177,
      "Gra": 6178,
      "Green": 6179,
      "Here": 6180,
      "Hans": 6181,
      "Kapitän": 6182,
      "Lu": 6183,
      "Lt": 6184,
      "Lie": 6185,
      "Langu": 6186,
      "Liber": 6187,
      "MU": 6188,
      "Mor": 6189,
      "Mart": 6190,
      "Mex": 6191,
      "Mumb": 6192,
      "Nap": 6193,
      "Ox": 6194,
      "Pa": 6195,
      "Pen": 6196,
      "Peter": 6197,
      "QP": 6198,
      "Rh": 6199,
      "Rel": 6200,
      "Rad": 6201,
      "Sen": 6202,
      "Squ": 6203,
      "Ti": 6204,
      "Ut": 6205,
      "VO": 6206,
      "bird": 6207,
      "burning": 6208,
      "banned": 6209,
      "cer": 6210,
      "cul": 6211,
      "citing": 6212,
      "di": 6213,
      "dw": 6214,
      "dun": 6215,
      "dry": 6216,
      "dare": 6217,
      "drop": 6218,
      "dangers": 6219,
      "eternal": 6220,
      "fans": 6221,
      "fled": 6222,
      "flex": 6223,
      "favor": 6224,
      "hol": 6225,
      "hills": 6226,
      "iOS": 6227,
      "jury": 6228,
      "lingu": 6229,
      "mol": 6230,
      "mild": 6231,
      "millions": 6232,
      "ped": 6233,
      "pal": 6234,
      "pul": 6235,
      "pact": 6236,
      "que": 6237,
      "rom": 6238,
      "rich": 6239,
      "rushed": 6240,
      "sights": 6241,
      "sixt": 6242,
      "ts": 6243,
      "tie": 6244,
      "taught": 6245,
      "von": 6246,
      "vary": 6247,
      "vice": 6248,
      "wand": 6249,
      "wept": 6250,
      "widespread": 6251,
      "##ox": 6252,
      "##oard": 6253,
      "##eal": 6254,
      "##sen": 6255,
      "##rants": 6256,
      "##rimin": 6257,
      "##kt": 6258,
      "##ault": 6259,
      "##lies": 6260,
      "##ufer": 6261,
      "##gol": 6262,
      "##gust": 6263,
      "##can": 6264,
      "##crib": 6265,
      "##AN": 6266,
      "##dow": 6267,
      "##fense": 6268,
      "##bles": 6269,
      "##hold": 6270,
      "##OM": 6271,
      "##II": 6272,
      "##ENT": 6273,
      "theat": 6274,
      "##inator": 6275,
      "##atures": 6276,
      "##atically": 6277,
      "##onies": 6278,
      "##esides": 6279,
      "##enant": 6280,
      "##anation": 6281,
      "##itory": 6282,
      "inex": 6283,
      "##reation": 6284,
      "##icial": 6285,
      "##omas": 6286,
      "##omber": 6287,
      "##ela": 6288,
      "##ett": 6289,
      "##ece": 6290,
      "##standing": 6291,
      "##ros": 6292,
      "##uttled": 6293,
      "##ading": 6294,
      "##otted": 6295,
      "##olve": 6296,
      "stra": 6297,
      "stone": 6298,
      "##agon": 6299,
      "alive": 6300,
      "##emed": 6301,
      "##essions": 6302,
      "sup": 6303,
      "##aints": 6304,
      "shud": 6305,
      "shows": 6306,
      "shoot": 6307,
      "comfort": 6308,
      "##unction": 6309,
      "##throp": 6310,
      "##ushing": 6311,
      "##osis": 6312,
      "##osom": 6313,
      "##abul": 6314,
      "##umes": 6315,
      "meant": 6316,
      "##akh": 6317,
      "tried": 6318,
      "trying": 6319,
      "spark": 6320,
      "channel": 6321,
      "##angel": 6322,
      "##pered": 6323,
      "##peror": 6324,
      "##pervised": 6325,
      "##ellow": 6326,
      "Ingol": 6327,
      "##overs": 6328,
      "##bergen": 6329,
      "##oughly": 6330,
      "leak": 6331,
      "leaving": 6332,
      "worse": 6333,
      "residents": 6334,
      "abroad": 6335,
      "aboard": 6336,
      "##geon": 6337,
      "imper": 6338,
      "compos": 6339,
      "##ogue": 6340,
      "##ignity": 6341,
      "disgust": 6342,
      "agency": 6343,
      "apply": 6344,
      "scuttled": 6345,
      "##outhe": 6346,
      "otherwise": 6347,
      "Street": 6348,
      "recur": 6349,
      "recently": 6350,
      "becomes": 6351,
      "Three": 6352,
      "Thomas": 6353,
      "interc": 6354,
      "percept": 6355,
      "##ultane": 6356,
      "##erves": 6357,
      "reports": 6358,
      "decor": 6359,
      "decide": 6360,
      "decisions": 6361,
      "quake": 6362,
      "remov": 6363,
      "Alster": 6364,
      "Church": 6365,
      "wars": 6366,
      "retreat": 6367,
      "indent": 6368,
      "blast": 6369,
      "blind": 6370,
      "1937": 6371,
      "centuries": 6372,
      "##aily": 6373,
      "caps": 6374,
      "captain": 6375,
      "2015": 6376,
      "2013": 6377,
      "metropolitan": 6378,
      "refuel": 6379,
      "Ent": 6380,
      "accepted": 6381,
      "Addition": 6382,
      "##mshaven": 6383,
      "invaded": 6384,
      "assumed": 6385,
      "misfort": 6386,
      "regard": 6387,
      "coach": 6388,
      "follows": 6389,
      "operator": 6390,
      "extingu": 6391,
      "##erney": 6392,
      "##othing": 6393,
      "Angl": 6394,
      "product": 6395,
      "district": 6396,
      "damaging": 6397,
      "restrict": 6398,
      "##encing": 6399,
      "Sport": 6400,
      "18th": 6401,
      "difference": 6402,
      "drive": 6403,
      "driven": 6404,
      "drama": 6405,
      "superior": 6406,
      "processes": 6407,
      "autonomous": 6408,
      "provides": 6409,
      "designated": 6410,
      "prompt": 6411,
      "prompted": 6412,
      "courts": 6413,
      "##plete": 6414,
      "glory": 6415,
      "expanded": 6416,
      "explo": 6417,
      "curs": 6418,
      "classification": 6419,
      "lightly": 6420,
      "constructed": 6421,
      "constitu": 6422,
      "collected": 6423,
      "collapse": 6424,
      "Defense": 6425,
      "Troms": 6426,
      "statistics": 6427,
      "amongst": 6428,
      "Club": 6429,
      "Newdow": 6430,
      "horse": 6431,
      "opposed": 6432,
      "starboard": 6433,
      "publicly": 6434,
      "Swiss": 6435,
      "1956": 6436,
      "##orno": 6437,
      "##orney": 6438,
      "Short": 6439,
      "crime": 6440,
      "crimes": 6441,
      "crimin": 6442,
      "democratic": 6443,
      "##ficial": 6444,
      "##riers": 6445,
      "Play": 6446,
      "failure": 6447,
      "smaller": 6448,
      "laying": 6449,
      "importance": 6450,
      "element": 6451,
      "heads": 6452,
      "domin": 6453,
      "views": 6454,
      "facil": 6455,
      "employees": 6456,
      "motor": 6457,
      "heavier": 6458,
      "survived": 6459,
      "identified": 6460,
      "recognized": 6461,
      "popularity": 6462,
      "murdered": 6463,
      "combined": 6464,
      "acquired": 6465,
      "Greater": 6466,
      "Manch": 6467,
      "hoped": 6468,
      "moves": 6469,
      "activities": 6470,
      "semantic": 6471,
      "imagined": 6472,
      "snowfl": 6473,
      "clearly": 6474,
      "weapon": 6475,
      "broadcast": 6476,
      "darkness": 6477,
      "exhaust": 6478,
      "apparent": 6479,
      "showing": 6480,
      "virtual": 6481,
      "Modern": 6482,
      "Modifications": 6483,
      "keeping": 6484,
      "Abb": 6485,
      "Erich": 6486,
      "Neural": 6487,
      "lovers": 6488,
      "woods": 6489,
      "002": 6490,
      "papers": 6491,
      "offered": 6492,
      "ardour": 6493,
      "involve": 6494,
      "depending": 6495,
      "Ukrainian": 6496,
      "ruled": 6497,
      "tuned": 6498,
      "fulfilled": 6499,
      "hastened": 6500,
      "absence": 6501,
      "Iraqi": 6502,
      "punct": 6503,
      "trembled": 6504,
      "causes": 6505,
      "wretchedness": 6506,
      "subsequent": 6507,
      "float": 6508,
      "persuade": 6509,
      "persuaded": 6510,
      "unlike": 6511,
      "adversar": 6512,
      "literature": 6513,
      "Jews": 6514,
      "warmth": 6515,
      "1871": 6516,
      "aimed": 6517,
      "documents": 6518,
      "moderators": 6519,
      "interview": 6520,
      "gloomy": 6521,
      "Israel": 6522,
      "duty": 6523,
      "duties": 6524,
      "frost": 6525,
      "Charles": 6526,
      "opposition": 6527,
      "marketing": 6528,
      "Wilhelm": 6529,
      "Wilhelmshaven": 6530,
      "Justine": 6531,
      "Middle": 6532,
      "revealed": 6533,
      "Institute": 6534,
      "cancelled": 6535,
      "diverse": 6536,
      "taste": 6537,
      "chatb": 6538,
      "horizon": 6539,
      "Kremlin": 6540,
      "Osorno": 6541,
      "border": 6542,
      "##zhn": 6543,
      "neutrality": 6544,
      "reproduction": 6545,
      "redditors": 6546,
      "Dollars": 6547,
      "correct": 6548,
      "vehicle": 6549,
      "female": 6550,
      "ultimately": 6551,
      "deprived": 6552,
      "resistance": 6553,
      "scheduled": 6554,
      "gradually": 6555,
      "Secretary": 6556,
      "CEO": 6557,
      "sacr": 6558,
      "Intelligence": 6559,
      "prepare": 6560,
      "breeze": 6561,
      "##eaux": 6562,
      "assemb": 6563,
      "##ermelon": 6564,
      "chamber": 6565,
      "Completed": 6566,
      "magnificent": 6567,
      "Bordeaux": 6568,
      "hatred": 6569,
      "senior": 6570,
      "wedding": 6571,
      "enormous": 6572,
      "Stephen": 6573,
      "remembrance": 6574,
      "Barbara": 6575,
      "Foreign": 6576,
      "Language": 6577,
      "MUL": 6578,
      "Mumbai": 6579,
      "Tierney": 6580,
      "holiday": 6581,
      "straight": 6582,
      "Ingolstadt": 6583,
      "Alsterufer": 6584,
      "misfortune": 6585,
      "Anglo": 6586,
      "Tromsø": 6587,
      "55": 6588,
      "77": 6589,
      "750": 6590,
      "95": 6591,
      "Agr": 6592,
      "Burn": 6593,
      "Bund": 6594,
      "BLO": 6595,
      "Cath": 6596,
      "Cape": 6597,
      "Carl": 6598,
      "Eck": 6599,
      "E48": 6600,
      "Foot": 6601,
      "Game": 6602,
      "Goth": 6603,
      "High": 6604,
      "Hind": 6605,
      "Holl": 6606,
      "JW": 6607,
      "Ka": 6608,
      "Kaz": 6609,
      "Let": 6610,
      "Life": 6611,
      "Law": 6612,
      "Mur": 6613,
      "Nov": 6614,
      "Ost": 6615,
      "Pu": 6616,
      "Pers": 6617,
      "Ren": 6618,
      "Rem": 6619,
      "Rome": 6620,
      "Rober": 6621,
      "SK": 6622,
      "Sur": 6623,
      "Sher": 6624,
      "Sum": 6625,
      "Sub": 6626,
      "TV": 6627,
      "Vis": 6628,
      "aer": 6629,
      "ble": 6630,
      "bore": 6631,
      "bang": 6632,
      "bell": 6633,
      "bud": 6634,
      "bull": 6635,
      "birth": 6636,
      "coup": 6637,
      "diam": 6638,
      "daily": 6639,
      "edit": 6640,
      "fing": 6641,
      "fake": 6642,
      "fighter": 6643,
      "ge": 6644,
      "ga": 6645,
      "gig": 6646,
      "hy": 6647,
      "hid": 6648,
      "jur": 6649,
      "kept": 6650,
      "lover": 6651,
      "lakes": 6652,
      "lecture": 6653,
      "losing": 6654,
      "mort": 6655,
      "member": 6656,
      "mounted": 6657,
      "rar": 6658,
      "ram": 6659,
      "rival": 6660,
      "sav": 6661,
      "song": 6662,
      "stern": 6663,
      "tim": 6664,
      "tall": 6665,
      "upper": 6666,
      "voc": 6667,
      "vote": 6668,
      "##set": 6669,
      "##racted": 6670,
      "##lec": 6671,
      "##leness": 6672,
      "##iop": 6673,
      "##na": 6674,
      "##under": 6675,
      "##uched": 6676,
      "##cr": 6677,
      "##chen": 6678,
      "##ford": 6679,
      "##bound": 6680,
      "##ho": 6681,
      "##wives": 6682,
      "##where": 6683,
      "##4K": 6684,
      "##jan": 6685,
      "##BI": 6686,
      "##FA": 6687,
      "##erce": 6688,
      "##edia": 6689,
      "##oni": 6690,
      "##ester": 6691,
      "##ora": 6692,
      "##arin": 6693,
      "##aration": 6694,
      "##armed": 6695,
      "##itable": 6696,
      "infer": 6697,
      "touched": 6698,
      "##alia": 6699,
      "##rel": 6700,
      "##reement": 6701,
      "##asons": 6702,
      "##asants": 6703,
      "##ico": 6704,
      "##icit": 6705,
      "##icip": 6706,
      "##ione": 6707,
      "##omatic": 6708,
      "thrown": 6709,
      "thirst": 6710,
      "##enth": 6711,
      "##etun": 6712,
      "##ecul": 6713,
      "##stan": 6714,
      "##lywood": 6715,
      "##utation": 6716,
      "##ademy": 6717,
      "##othe": 6718,
      "##otics": 6719,
      "forb": 6720,
      "beach": 6721,
      "##olf": 6722,
      "##olate": 6723,
      "##olished": 6724,
      "rever": 6725,
      "reass": 6726,
      "rearmament": 6727,
      "reasons": 6728,
      "##tered": 6729,
      "##imar": 6730,
      "stated": 6731,
      "stick": 6732,
      "staff": 6733,
      "stadium": 6734,
      "##estig": 6735,
      "conqu": 6736,
      "convey": 6737,
      "converted": 6738,
      "alignment": 6739,
      "##ula": 6740,
      "##ulating": 6741,
      "shown": 6742,
      "##oder": 6743,
      "##unami": 6744,
      "##thon": 6745,
      "##ifted": 6746,
      "##ifting": 6747,
      "##iforn": 6748,
      "##oper": 6749,
      "note": 6750,
      "trace": 6751,
      "segment": 6752,
      "arise": 6753,
      "##ansion": 6754,
      "##quarters": 6755,
      "##ocent": 6756,
      "unus": 6757,
      "units": 6758,
      "unpar": 6759,
      "plane": 6760,
      "pron": 6761,
      "intend": 6762,
      "2000": 6763,
      "##artment": 6764,
      "reserve": 6765,
      "compr": 6766,
      "compre": 6767,
      "complement": 6768,
      "incom": 6769,
      "adul": 6770,
      "clothes": 6771,
      "diseng": 6772,
      "scrapped": 6773,
      "attorney": 6774,
      "committed": 6775,
      "Ito": 6776,
      "##ensus": 6777,
      "##ika": 6778,
      "prejud": 6779,
      "parties": 6780,
      "partially": 6781,
      "thank": 6782,
      "sym": 6783,
      "relief": 6784,
      "decades": 6785,
      "mankind": 6786,
      "transition": 6787,
      "remorse": 6788,
      "ends": 6789,
      "indul": 6790,
      "##issed": 6791,
      "strict": 6792,
      "cargo": 6793,
      "##aths": 6794,
      "subs": 6795,
      "subjects": 6796,
      "earnest": 6797,
      "##ildren": 6798,
      "##ailed": 6799,
      "##lands": 6800,
      "##grad": 6801,
      "surve": 6802,
      "surprise": 6803,
      "instance": 6804,
      "passing": 6805,
      "passions": 6806,
      "##ointed": 6807,
      "##oldt": 6808,
      "refused": 6809,
      "detached": 6810,
      "articles": 6811,
      "developments": 6812,
      "miseries": 6813,
      "Comput": 6814,
      "varied": 6815,
      "##posed": 6816,
      "calling": 6817,
      "powered": 6818,
      "operate": 6819,
      "operational": 6820,
      "possession": 6821,
      "seeing": 6822,
      "##rows": 6823,
      "##worthy": 6824,
      "2004": 6825,
      "2002": 6826,
      "2001": 6827,
      "2003": 6828,
      "Engine": 6829,
      "##hens": 6830,
      "Weimar": 6831,
      "specified": 6832,
      "189": 6833,
      "arrang": 6834,
      "nearby": 6835,
      "concluded": 6836,
      "maintain": 6837,
      "providing": 6838,
      "entreated": 6839,
      "smile": 6840,
      "attacking": 6841,
      "filed": 6842,
      "bombings": 6843,
      "explain": 6844,
      "exploded": 6845,
      "explanation": 6846,
      "anticip": 6847,
      "classes": 6848,
      "Commander": 6849,
      "1990s": 6850,
      "##istered": 6851,
      "writer": 6852,
      "writes": 6853,
      "writers": 6854,
      "approved": 6855,
      "entering": 6856,
      "YouT": 6857,
      "##iumph": 6858,
      "organized": 6859,
      "redes": 6860,
      "completely": 6861,
      "Americans": 6862,
      "guide": 6863,
      "##ottile": 6864,
      "featuring": 6865,
      "Beitz": 6866,
      "Black": 6867,
      "annex": 6868,
      "Desperate": 6869,
      "1950": 6870,
      "1950s": 6871,
      "goods": 6872,
      "realm": 6873,
      "147": 6874,
      "label": 6875,
      "movements": 6876,
      "poet": 6877,
      "pole": 6878,
      "16th": 6879,
      "growing": 6880,
      "propag": 6881,
      "bestowed": 6882,
      "lessons": 6883,
      "headquarters": 6884,
      "beneath": 6885,
      "dominated": 6886,
      "valued": 6887,
      "##werft": 6888,
      "probability": 6889,
      "travelled": 6890,
      "facts": 6891,
      "facilities": 6892,
      "difficulties": 6893,
      "Project": 6894,
      "representing": 6895,
      "swear": 6896,
      "listened": 6897,
      "merged": 6898,
      "centimet": 6899,
      "survive": 6900,
      "surviving": 6901,
      "painted": 6902,
      "1989": 6903,
      "determination": 6904,
      "divine": 6905,
      "LLa": 6906,
      "degrees": 6907,
      "claims": 6908,
      "Parliament": 6909,
      "consumers": 6910,
      "peaceful": 6911,
      "influenced": 6912,
      "commanded": 6913,
      "illness": 6914,
      "volume": 6915,
      "mechanism": 6916,
      "Romania": 6917,
      "negot": 6918,
      "strongly": 6919,
      "Others": 6920,
      "communicate": 6921,
      "inputs": 6922,
      "answering": 6923,
      "parameter": 6924,
      "individuals": 6925,
      "explosions": 6926,
      "1938B": 6927,
      "credited": 6928,
      "revenue": 6929,
      "responses": 6930,
      "establish": 6931,
      "murderer": 6932,
      "offering": 6933,
      "ardently": 6934,
      "Python": 6935,
      "##alleled": 6936,
      "adapted": 6937,
      "copies": 6938,
      "Harry": 6939,
      "streaming": 6940,
      "delivered": 6941,
      "Boat": 6942,
      "Musa": 6943,
      "customers": 6944,
      "wounding": 6945,
      "walked": 6946,
      "immediate": 6947,
      "prepared": 6948,
      "remembered": 6949,
      "innocent": 6950,
      "rendered": 6951,
      "collective": 6952,
      "minefields": 6953,
      "Torpedo": 6954,
      "audio": 6955,
      "figures": 6956,
      "##going": 6957,
      "framework": 6958,
      "##ography": 6959,
      "feedback": 6960,
      "Democratic": 6961,
      "sickness": 6962,
      "Constitution": 6963,
      "scenarios": 6964,
      "frozen": 6965,
      "wishes": 6966,
      "##ulsion": 6967,
      "apartment": 6968,
      "evacuating": 6969,
      "Federation": 6970,
      "Phil": 6971,
      "sortied": 6972,
      "surely": 6973,
      "attractive": 6974,
      "toils": 6975,
      "##iciently": 6976,
      "Franco": 6977,
      "flooding": 6978,
      "physical": 6979,
      "concentrated": 6980,
      "satisfied": 6981,
      "rebu": 6982,
      "administration": 6983,
      "hotel": 6984,
      "trouble": 6985,
      "empire": 6986,
      "Scotland": 6987,
      "Deutsches": 6988,
      "##known": 6989,
      "enlisted": 6990,
      "cooperation": 6991,
      "corpse": 6992,
      "175B": 6993,
      "transmissibility": 6994,
      "kilometers": 6995,
      "Bolsheviks": 6996,
      "candidates": 6997,
      "robustness": 6998,
      "Socialist": 6999,
      "Zerstörerflottile": 7000,
      "energy": 7001,
      "cheeks": 7002,
      "magazine": 7003,
      "immigrants": 7004,
      "Academy": 7005,
      "Brezhn": 7006,
      "Californ": 7007,
      "mixed": 7008,
      "amusement": 7009,
      "obscure": 7010,
      "##ancellor": 7011,
      "exclusive": 7012,
      "celebrity": 7013,
      "Association": 7014,
      "Czechoslovakia": 7015,
      "Vlad": 7016,
      "begun": 7017,
      "academic": 7018,
      "cheerful": 7019,
      "crippled": 7020,
      "permanent": 7021,
      "narrative": 7022,
      "ignorant": 7023,
      "David": 7024,
      "Squadron": 7025,
      "VOC": 7026,
      "romantic": 7027,
      "tsunami": 7028,
      "wandered": 7029,
      "criminal": 7030,
      "BLOOM": 7031,
      "Eckoldt": 7032,
      "E484K": 7033,
      "Puert": 7034,
      "##lecru": 7035,
      "unparalleled": 7036,
      "Beitzen": 7037,
      "Brezhnev": 7038,
      "34": 7039,
      "33": 7040,
      "44": 7041,
      "42": 7042,
      "47": 7043,
      "43": 7044,
      "59": 7045,
      "56": 7046,
      "68": 7047,
      "78": 7048,
      "85": 7049,
      "Ap": 7050,
      "Ah": 7051,
      "Ba": 7052,
      "Best": 7053,
      "Bul": 7054,
      "Bey": 7055,
      "Cond": 7056,
      "Coll": 7057,
      "Cons": 7058,
      "Dorm": 7059,
      "Danish": 7060,
      "Data": 7061,
      "Fury": 7062,
      "FBI": 7063,
      "Gi": 7064,
      "Geph": 7065,
      "Home": 7066,
      "Himal": 7067,
      "ID": 7068,
      "Je": 7069,
      "Jose": 7070,
      "Lear": 7071,
      "MP": 7072,
      "MV": 7073,
      "Mer": 7074,
      "Mass": 7075,
      "Mult": 7076,
      "PO": 7077,
      "Pat": 7078,
      "Petro": 7079,
      "Qu": 7080,
      "Rom": 7081,
      "Sy": 7082,
      "SE": 7083,
      "UE": 7084,
      "Vir": 7085,
      "Vers": 7086,
      "W9": 7087,
      "Wong": 7088,
      "Wik": 7089,
      "ahead": 7090,
      "bent": 7091,
      "bind": 7092,
      "bond": 7093,
      "burn": 7094,
      "bomber": 7095,
      "cit": 7096,
      "cos": 7097,
      "cust": 7098,
      "council": 7099,
      "crawl": 7100,
      "da": 7101,
      "dying": 7102,
      "dynam": 7103,
      "eld": 7104,
      "fal": 7105,
      "fly": 7106,
      "fles": 7107,
      "fert": 7108,
      "flying": 7109,
      "god": 7110,
      "gone": 7111,
      "gives": 7112,
      "grown": 7113,
      "gazed": 7114,
      "hom": 7115,
      "hun": 7116,
      "hov": 7117,
      "holes": 7118,
      "iron": 7119,
      "joint": 7120,
      "loud": 7121,
      "laugh": 7122,
      "lady": 7123,
      "mit": 7124,
      "mate": 7125,
      "mock": 7126,
      "marty": 7127,
      "neck": 7128,
      "rot": 7129,
      "rover": 7130,
      "rates": 7131,
      "rivers": 7132,
      "ranging": 7133,
      "sand": 7134,
      "sake": 7135,
      "sinc": 7136,
      "tal": 7137,
      "tact": 7138,
      "van": 7139,
      "vector": 7140,
      "wake": 7141,
      "witness": 7142,
      "yards": 7143,
      "yellow": 7144,
      "##equ": 7145,
      "##si": 7146,
      "##sb": 7147,
      "##sky": 7148,
      "##rous": 7149,
      "##ke": 7150,
      "##long": 7151,
      "##like": 7152,
      "##lock": 7153,
      "##lined": 7154,
      "##nes": 7155,
      "##now": 7156,
      "##nitz": 7157,
      "##natural": 7158,
      "##uced": 7159,
      "##ma": 7160,
      "##gent": 7161,
      "##pe": 7162,
      "##pet": 7163,
      "##ports": 7164,
      "##cher": 7165,
      "##van": 7166,
      "##fing": 7167,
      "##fecture": 7168,
      "##fjord": 7169,
      "##bl": 7170,
      "##bage": 7171,
      "##hib": 7172,
      "##war": 7173,
      "##worm": 7174,
      "##LM": 7175,
      "##VA": 7176,
      "##VI": 7177,
      "##KA": 7178,
      "##inter": 7179,
      "##inery": 7180,
      "##oret": 7181,
      "##angh": 7182,
      "##arp": 7183,
      "##ita": 7184,
      "##iter": 7185,
      "inland": 7186,
      "##ingrad": 7187,
      "##isp": 7188,
      "##isive": 7189,
      "##asions": 7190,
      "##ashes": 7191,
      "##icious": 7192,
      "##icism": 7193,
      "##ompass": 7194,
      "##eline": 7195,
      "thunder": 7196,
      "##ente": 7197,
      "##sters": 7198,
      "##storm": 7199,
      "##utenant": 7200,
      "ones": 7201,
      "##otions": 7202,
      "forests": 7203,
      "bear": 7204,
      "##amin": 7205,
      "##aming": 7206,
      "##ighed": 7207,
      "##olith": 7208,
      "Theod": 7209,
      "##ayer": 7210,
      "##ima": 7211,
      "##imir": 7212,
      "##estation": 7213,
      "##estival": 7214,
      "conject": 7215,
      "##ago": 7216,
      "##agi": 7217,
      "aligned": 7218,
      "##emies": 7219,
      "##herent": 7220,
      "shared": 7221,
      "prove": 7222,
      "##ifts": 7223,
      "habit": 7224,
      "##ourished": 7225,
      "##aby": 7226,
      "##abor": 7227,
      "orient": 7228,
      "##uming": 7229,
      "height": 7230,
      "notes": 7231,
      "##akers": 7232,
      "##andom": 7233,
      "triumph": 7234,
      "##ermünde": 7235,
      "##apl": 7236,
      "##apel": 7237,
      "##ecting": 7238,
      "##ective": 7239,
      "##ardt": 7240,
      "seated": 7241,
      "seize": 7242,
      "enemies": 7243,
      "chim": 7244,
      "chairs": 7245,
      "church": 7246,
      "champions": 7247,
      "arc": 7248,
      "##ounce": 7249,
      "##antin": 7250,
      "##ureau": 7251,
      "##oche": 7252,
      "plus": 7253,
      "worry": 7254,
      "resem": 7255,
      "resigned": 7256,
      "allocated": 7257,
      "contam": 7258,
      "compens": 7259,
      "##rave": 7260,
      "##ogram": 7261,
      "##ignant": 7262,
      "disord": 7263,
      "disaster": 7264,
      "##active": 7265,
      "scrap": 7266,
      "upv": 7267,
      "commons": 7268,
      "commerce": 7269,
      "1947": 7270,
      "##overed": 7271,
      "##ensity": 7272,
      "prey": 7273,
      "Germanic": 7274,
      "Germania": 7275,
      "##endar": 7276,
      "##endous": 7277,
      "thanks": 7278,
      "outbreak": 7279,
      "consists": 7280,
      "consolation": 7281,
      "someone": 7282,
      "graph": 7283,
      "##erving": 7284,
      "theme": 7285,
      "relation": 7286,
      "relie": 7287,
      "relax": 7288,
      "repose": 7289,
      "manually": 7290,
      "manager": 7291,
      "accum": 7292,
      "accidents": 7293,
      "quiet": 7294,
      "Champions": 7295,
      "indic": 7296,
      "##issions": 7297,
      "stress": 7298,
      "strik": 7299,
      "carriers": 7300,
      "blow": 7301,
      "blank": 7302,
      "charges": 7303,
      "1930s": 7304,
      "actor": 7305,
      "Health": 7306,
      "empt": 7307,
      "anyone": 7308,
      "##pense": 7309,
      "escaped": 7310,
      "peasants": 7311,
      "metric": 7312,
      "plays": 7313,
      "loose": 7314,
      "ourselves": 7315,
      "##velopment": 7316,
      "refuse": 7317,
      "Reval": 7318,
      "##rete": 7319,
      "continuation": 7320,
      "continuing": 7321,
      "misuse": 7322,
      "calls": 7323,
      "goes": 7324,
      "cook": 7325,
      "advancing": 7326,
      "fourteen": 7327,
      "##itsbergen": 7328,
      "producing": 7329,
      "disturb": 7330,
      "distributed": 7331,
      "distribution": 7332,
      "2007": 7333,
      "signs": 7334,
      "restore": 7335,
      "##enger": 7336,
      "Speed": 7337,
      "Spitsbergen": 7338,
      "182": 7339,
      "gameplay": 7340,
      "offices": 7341,
      "simultane": 7342,
      "processors": 7343,
      "engagement": 7344,
      "autumn": 7345,
      "maintained": 7346,
      "maintaining": 7347,
      "battlecru": 7348,
      "defence": 7349,
      "entreat": 7350,
      "##azing": 7351,
      "checks": 7352,
      "finance": 7353,
      "finetun": 7354,
      "affections": 7355,
      "governance": 7356,
      "inflic": 7357,
      "##isional": 7358,
      "##ricted": 7359,
      "communist": 7360,
      "studied": 7361,
      "increases": 7362,
      "lexers": 7363,
      "collection": 7364,
      "deaths": 7365,
      "approaches": 7366,
      "##onomy": 7367,
      "entertain": 7368,
      "Police": 7369,
      "experiments": 7370,
      "Class": 7371,
      "freely": 7372,
      "Flak": 7373,
      "opponents": 7374,
      "turns": 7375,
      "descent": 7376,
      "Bristol": 7377,
      "receivers": 7378,
      "planet": 7379,
      "Science": 7380,
      "raising": 7381,
      "skin": 7382,
      "windows": 7383,
      "successfully": 7384,
      "speedily": 7385,
      "Swartz": 7386,
      "1954": 7387,
      "1951": 7388,
      "encompass": 7389,
      "equity": 7390,
      "devil": 7391,
      "adding": 7392,
      "Shangh": 7393,
      "friendship": 7394,
      "solitary": 7395,
      "medium": 7396,
      "propulsion": 7397,
      "calendar": 7398,
      "layers": 7399,
      "multimodal": 7400,
      "##alton": 7401,
      "busy": 7402,
      "probable": 7403,
      "traveller": 7404,
      "traversed": 7405,
      "tasked": 7406,
      "representations": 7407,
      "239": 7408,
      "structural": 7409,
      "merely": 7410,
      "crewmen": 7411,
      "lineage": 7412,
      "tests": 7413,
      "married": 7414,
      "temporary": 7415,
      "##insula": 7416,
      "currency": 7417,
      "loaded": 7418,
      "202012": 7419,
      "sentiment": 7420,
      "1980s": 7421,
      "breakout": 7422,
      "36A": 7423,
      "culture": 7424,
      "display": 7425,
      "Housewives": 7426,
      "##boat": 7427,
      "politics": 7428,
      "searching": 7429,
      "independently": 7430,
      "enjoyment": 7431,
      "Wesermünde": 7432,
      "compete": 7433,
      "veget": 7434,
      "remainder": 7435,
      "islands": 7436,
      "prevented": 7437,
      "Exper": 7438,
      "Examples": 7439,
      "permit": 7440,
      "permitted": 7441,
      "Nazis": 7442,
      "Slow": 7443,
      "losses": 7444,
      "undisc": 7445,
      "Leningrad": 7446,
      "waited": 7447,
      "waiting": 7448,
      "university": 7449,
      "immense": 7450,
      "automatic": 7451,
      "reference": 7452,
      "novels": 7453,
      "1970s": 7454,
      "primarily": 7455,
      "sculptors": 7456,
      "sympathize": 7457,
      "paying": 7458,
      "##uke": 7459,
      "injury": 7460,
      "recorded": 7461,
      "boiler": 7462,
      "targeted": 7463,
      "selected": 7464,
      "##bourg": 7465,
      "bitterly": 7466,
      "copyr": 7467,
      "flagella": 7468,
      "historical": 7469,
      "Histor": 7470,
      "dangerous": 7471,
      "hasten": 7472,
      "debate": 7473,
      "disappeared": 7474,
      "repaired": 7475,
      "exhibit": 7476,
      "exhibited": 7477,
      "boys": 7478,
      "dissolution": 7479,
      "dropped": 7480,
      "repeated": 7481,
      "translated": 7482,
      "discussions": 7483,
      "expectation": 7484,
      "demands": 7485,
      "691": 7486,
      "procure": 7487,
      "procured": 7488,
      "evolutionary": 7489,
      "adversary": 7490,
      "brothers": 7491,
      "literally": 7492,
      "Hohen": 7493,
      "awoke": 7494,
      "harmful": 7495,
      "kilogram": 7496,
      "Canadian": 7497,
      "Soft": 7498,
      "document": 7499,
      "essentially": 7500,
      "measures": 7501,
      "terrible": 7502,
      "estimates": 7503,
      "microorgan": 7504,
      "##while": 7505,
      "drinking": 7506,
      "cyber": 7507,
      "implemented": 7508,
      "opposite": 7509,
      "normal": 7510,
      "conception": 7511,
      "instrument": 7512,
      "Sweden": 7513,
      "obliged": 7514,
      "algorithm": 7515,
      "exercise": 7516,
      "inhabitants": 7517,
      "Department": 7518,
      "err": 7519,
      "demonstrated": 7520,
      "struggle": 7521,
      "Avatar": 7522,
      "Irish": 7523,
      "burst": 7524,
      "renewed": 7525,
      "##friend": 7526,
      "Anti": 7527,
      "##onymous": 7528,
      "##idelity": 7529,
      "stretched": 7530,
      "alternative": 7531,
      "##ippa": 7532,
      "commissioning": 7533,
      "metabol": 7534,
      "detonated": 7535,
      "semicolon": 7536,
      "maneuvered": 7537,
      "astonishment": 7538,
      "shadow": 7539,
      "deployed": 7540,
      "passengers": 7541,
      "predecessor": 7542,
      "borne": 7543,
      "reloads": 7544,
      "strategies": 7545,
      "restaurant": 7546,
      "answered": 7547,
      "observations": 7548,
      "catastrop": 7549,
      "neighbourhood": 7550,
      "licensed": 7551,
      "opinion": 7552,
      "Greece": 7553,
      "cryst": 7554,
      "##ailles": 7555,
      "reception": 7556,
      "manufacturing": 7557,
      "overhaul": 7558,
      "substant": 7559,
      "entrance": 7560,
      "predicted": 7561,
      "stereotype": 7562,
      "Napole": 7563,
      "Radio": 7564,
      "birds": 7565,
      "dungeon": 7566,
      "##cribed": 7567,
      "##abulary": 7568,
      "restrictions": 7569,
      "exhausted": 7570,
      "MULEs": 7571,
      "Agrippa": 7572,
      "Gothic": 7573,
      "Robert": 7574,
      "rarely": 7575,
      "vocabulary": 7576,
      "unusual": 7577,
      "disengage": 7578,
      "centimetre": 7579,
      "LLaMA": 7580,
      "California": 7581,
      "Vladimir": 7582,
      "Puerta": 7583,
      "Gephardt": 7584,
      "Himalaya": 7585,
      "POW": 7586,
      "UEFA": 7587,
      "Versailles": 7588,
      "false": 7589,
      "Speedy": 7590,
      "Shanghai": 7591,
      "microorganisms": 7592,
      "08": 7593,
      "6th": 7594,
      "75": 7595,
      "71": 7596,
      "7B": 7597,
      "Bag": 7598,
      "Bank": 7599,
      "Broad": 7600,
      "Besides": 7601,
      "CS": 7602,
      "Cub": 7603,
      "Corn": 7604,
      "Code": 7605,
      "Crown": 7606,
      "Dr": 7607,
      "Dynam": 7608,
      "Era": 7609,
      "Edition": 7610,
      "Far": 7611,
      "Fow": 7612,
      "Four": 7613,
      "Five": 7614,
      "Gro": 7615,
      "Gall": 7616,
      "Good": 7617,
      "Giro": 7618,
      "Hall": 7619,
      "Hav": 7620,
      "Hills": 7621,
      "Human": 7622,
      "Hela": 7623,
      "Hoche": 7624,
      "Jac": 7625,
      "Kl": 7626,
      "Long": 7627,
      "Lib": 7628,
      "Lake": 7629,
      "Luc": 7630,
      "Mat": 7631,
      "Mon": 7632,
      "Men": 7633,
      "Mall": 7634,
      "M42": 7635,
      "Miy": 7636,
      "Near": 7637,
      "Nast": 7638,
      "Natural": 7639,
      "Out": 7640,
      "PC": 7641,
      "Port": 7642,
      "Post": 7643,
      "Pict": 7644,
      "RA": 7645,
      "Retro": 7646,
      "Sm": 7647,
      "Sam": 7648,
      "Suff": 7649,
      "SAR": 7650,
      "Te": 7651,
      "Time": 7652,
      "Vice": 7653,
      "Wat": 7654,
      "Walton": 7655,
      "Yel": 7656,
      "Your": 7657,
      "Zem": 7658,
      "bor": 7659,
      "bab": 7660,
      "bases": 7661,
      "bosom": 7662,
      "cow": 7663,
      "crop": 7664,
      "din": 7665,
      "doll": 7666,
      "dipl": 7667,
      "fol": 7668,
      "fill": 7669,
      "fission": 7670,
      "fills": 7671,
      "fiest": 7672,
      "gal": 7673,
      "gross": 7674,
      "gift": 7675,
      "hang": 7676,
      "hob": 7677,
      "homes": 7678,
      "hiding": 7679,
      "hull": 7680,
      "hole": 7681,
      "ju": 7682,
      "kit": 7683,
      "li": 7684,
      "lb": 7685,
      "lots": 7686,
      "mile": 7687,
      "nur": 7688,
      "nodes": 7689,
      "pan": 7690,
      "pet": 7691,
      "pure": 7692,
      "rat": 7693,
      "rud": 7694,
      "rub": 7695,
      "rare": 7696,
      "rational": 7697,
      "random": 7698,
      "seld": 7699,
      "section": 7700,
      "saved": 7701,
      "southe": 7702,
      "tum": 7703,
      "tonn": 7704,
      "upl": 7705,
      "util": 7706,
      "ver": 7707,
      "Åland": 7708,
      "##eign": 7709,
      "##sch": 7710,
      "##rid": 7711,
      "##rak": 7712,
      "##ront": 7713,
      "##ait": 7714,
      "##aid": 7715,
      "##aver": 7716,
      "##aus": 7717,
      "##lim": 7718,
      "##lines": 7719,
      "##ij": 7720,
      "##iences": 7721,
      "##met": 7722,
      "##gat": 7723,
      "##gage": 7724,
      "##gant": 7725,
      "##gations": 7726,
      "##gets": 7727,
      "##pus": 7728,
      "##pany": 7729,
      "##co": 7730,
      "##cy": 7731,
      "##cus": 7732,
      "##coh": 7733,
      "##de": 7734,
      "##dad": 7735,
      "##faces": 7736,
      "##hdad": 7737,
      "##47": 7738,
      "##ür": 7739,
      "##ye": 7740,
      "##zig": 7741,
      "##PS": 7742,
      "##IS": 7743,
      "##ER": 7744,
      "##hend": 7745,
      "##atars": 7746,
      "##onial": 7747,
      "##enes": 7748,
      "##aned": 7749,
      "##anks": 7750,
      "##anistan": 7751,
      "##itor": 7752,
      "##itled": 7753,
      "inade": 7754,
      "toll": 7755,
      "##isis": 7756,
      "##isher": 7757,
      "##isite": 7758,
      "##reed": 7759,
      "##ask": 7760,
      "##ashed": 7761,
      "##asures": 7762,
      "##icide": 7763,
      "##oma": 7764,
      "##omy": 7765,
      "thin": 7766,
      "thou": 7767,
      "##ental": 7768,
      "##iler": 7769,
      "##ilies": 7770,
      "##ilia": 7771,
      "##ura": 7772,
      "##roc": 7773,
      "##room": 7774,
      "##lya": 7775,
      "##uties": 7776,
      "ongoing": 7777,
      "##otter": 7778,
      "##irm": 7779,
      "##owworm": 7780,
      "##igs": 7781,
      "##iga": 7782,
      "##igan": 7783,
      "##olo": 7784,
      "##olt": 7785,
      "##olid": 7786,
      "##olated": 7787,
      "##olars": 7788,
      "##imation": 7789,
      "aside": 7790,
      "stir": 7791,
      "stem": 7792,
      "##esty": 7793,
      "conference": 7794,
      "##tsin": 7795,
      "alarm": 7796,
      "##ems": 7797,
      "##employ": 7798,
      "fraud": 7799,
      "suite": 7800,
      "suicide": 7801,
      "##ulous": 7802,
      "##ulates": 7803,
      "shop": 7804,
      "shone": 7805,
      "##unte": 7806,
      "exile": 7807,
      "exert": 7808,
      "exertion": 7809,
      "proved": 7810,
      "projects": 7811,
      "prolong": 7812,
      "prohib": 7813,
      "##ifice": 7814,
      "##using": 7815,
      "##ourse": 7816,
      "##ivals": 7817,
      "##ums": 7818,
      "##ump": 7819,
      "##istical": 7820,
      "##ategy": 7821,
      "dej": 7822,
      "deform": 7823,
      "deemed": 7824,
      "##aki": 7825,
      "trib": 7826,
      "trains": 7827,
      "##erman": 7828,
      "##ardens": 7829,
      "seapl": 7830,
      "chrom": 7831,
      "chocol": 7832,
      "##ghanistan": 7833,
      "##perger": 7834,
      "##ellular": 7835,
      "##alling": 7836,
      "Ins": 7837,
      "##plets": 7838,
      "##quity": 7839,
      "##rust": 7840,
      "unex": 7841,
      "unknown": 7842,
      "unemploy": 7843,
      "plot": 7844,
      "plate": 7845,
      "plasm": 7846,
      "##oused": 7847,
      "pressed": 7848,
      "##ishable": 7849,
      "##asting": 7850,
      "league": 7851,
      "worn": 7852,
      "allies": 7853,
      "allotted": 7854,
      "##eps": 7855,
      "##izer": 7856,
      "##izations": 7857,
      "contained": 7858,
      "##inder": 7859,
      "##rities": 7860,
      "adj": 7861,
      "advert": 7862,
      "##ignation": 7863,
      "clay": 7864,
      "clim": 7865,
      "clust": 7866,
      "closing": 7867,
      "modulation": 7868,
      "modifications": 7869,
      "disag": 7870,
      "destined": 7871,
      "agitated": 7872,
      "genomes": 7873,
      "appe": 7874,
      "appre": 7875,
      "scope": 7876,
      "script": 7877,
      "##ube": 7878,
      "attributed": 7879,
      "committee": 7880,
      "Stone": 7881,
      "recording": 7882,
      "##rying": 7883,
      "preferred": 7884,
      "Those": 7885,
      "pert": 7886,
      "perpet": 7887,
      "offensive": 7888,
      "##ervation": 7889,
      "relate": 7890,
      "doct": 7891,
      "reply": 7892,
      "dece": 7893,
      "decade": 7894,
      "decline": 7895,
      "overth": 7896,
      "generous": 7897,
      "generates": 7898,
      "generator": 7899,
      "generators": 7900,
      "qualities": 7901,
      "##veland": 7902,
      "remove": 7903,
      "Alb": 7904,
      "Alph": 7905,
      "Albert": 7906,
      "Chic": 7907,
      "warned": 7908,
      "impat": 7909,
      "imposed": 7910,
      "strike": 7911,
      "strategy": 7912,
      "Russians": 7913,
      "bloom": 7914,
      "blocks": 7915,
      "suburb": 7916,
      "acting": 7917,
      "Heavy": 7918,
      "emotions": 7919,
      "teacher": 7920,
      "Markov": 7921,
      "##ypes": 7922,
      "whereas": 7923,
      "obtaining": 7924,
      "flow": 7925,
      "##arewell": 7926,
      "refers": 7927,
      "owned": 7928,
      "artists": 7929,
      "acts": 7930,
      "monarch": 7931,
      "monsters": 7932,
      "bright": 7933,
      "branch": 7934,
      "foundational": 7935,
      "Rex": 7936,
      "presently": 7937,
      "preserved": 7938,
      "Asperger": 7939,
      "assure": 7940,
      "##anking": 7941,
      "suppose": 7942,
      "didn": 7943,
      "coord": 7944,
      "advice": 7945,
      "extra": 7946,
      "extinction": 7947,
      "discl": 7948,
      "discrimin": 7949,
      "everyone": 7950,
      "torpedoed": 7951,
      "worldwide": 7952,
      "Who": 7953,
      "disturbed": 7954,
      "visions": 7955,
      "knows": 7956,
      "restricted": 7957,
      "183": 7958,
      "##heses": 7959,
      "officer": 7960,
      "phr": 7961,
      "drifting": 7962,
      "termed": 7963,
      "terminal": 7964,
      "delay": 7965,
      "delighted": 7966,
      "entry": 7967,
      "serious": 7968,
      "persons": 7969,
      "smiles": 7970,
      "prompts": 7971,
      "Europeans": 7972,
      "handed": 7973,
      "handle": 7974,
      "handled": 7975,
      "glim": 7976,
      "steel": 7977,
      "files": 7978,
      "infin": 7979,
      "infection": 7980,
      "expensive": 7981,
      "singular": 7982,
      "confess": 7983,
      "confined": 7984,
      "confront": 7985,
      "##aneous": 7986,
      "##roll": 7987,
      "##iversary": 7988,
      "curse": 7989,
      "antibi": 7990,
      "relevant": 7991,
      "elections": 7992,
      "elimin": 7993,
      "student": 7994,
      "1999": 7995,
      "1997": 7996,
      "1998": 7997,
      "collapsed": 7998,
      "Development": 7999,
      "background": 8000,
      "##onomic": 8001,
      "Training": 8002,
      "Howard": 8003,
      "statistical": 8004,
      "replace": 8005,
      "replacing": 8006,
      "corner": 8007,
      "opposing": 8008,
      "11th": 8009,
      "finds": 8010,
      "protests": 8011,
      "170": 8012,
      "despond": 8013,
      "announce": 8014,
      "discoveries": 8015,
      "shortage": 8016,
      "grouping": 8017,
      "1958": 8018,
      "supporters": 8019,
      "Shall": 8020,
      "poison": 8021,
      "##ortunity": 8022,
      "solely": 8023,
      "solving": 8024,
      "believes": 8025,
      "160": 8026,
      "improving": 8027,
      "caution": 8028,
      "failing": 8029,
      "multi": 8030,
      "headed": 8031,
      "ideal": 8032,
      "fearful": 8033,
      "begins": 8034,
      "Islam": 8035,
      "initiated": 8036,
      "patri": 8037,
      "ordering": 8038,
      "##buro": 8039,
      "easy": 8040,
      "occurrence": 8041,
      "Prot": 8042,
      "Prof": 8043,
      "employment": 8044,
      "specifically": 8045,
      "representation": 8046,
      "1964": 8047,
      "legit": 8048,
      "lengthy": 8049,
      "wondrous": 8050,
      "Hispan": 8051,
      "##forced": 8052,
      "topic": 8053,
      "sentiments": 8054,
      "1986": 8055,
      "Agreement": 8056,
      "cultures": 8057,
      "divide": 8058,
      "sensitive": 8059,
      "architectures": 8060,
      "barr": 8061,
      "barbar": 8062,
      "selfish": 8063,
      "consumer": 8064,
      "consumed": 8065,
      "endeavouring": 8066,
      "Ministers": 8067,
      "circle": 8068,
      "searchlight": 8069,
      "argue": 8070,
      "argues": 8071,
      "argument": 8072,
      "reportedly": 8073,
      "precision": 8074,
      "improvement": 8075,
      "literal": 8076,
      "complexity": 8077,
      "gentleness": 8078,
      "semi": 8079,
      "volunte": 8080,
      "threats": 8081,
      "accompany": 8082,
      "investment": 8083,
      "Afghanistan": 8084,
      "civilization": 8085,
      "ape": 8086,
      "targets": 8087,
      "winning": 8088,
      "engineers": 8089,
      "socialist": 8090,
      "banished": 8091,
      "towns": 8092,
      "##agerrak": 8093,
      "Transform": 8094,
      "voyages": 8095,
      "objective": 8096,
      "philosophers": 8097,
      "Ern": 8098,
      "universal": 8099,
      "automated": 8100,
      "automatically": 8101,
      "Georg": 8102,
      "seeking": 8103,
      "003": 8104,
      "robots": 8105,
      "fortun": 8106,
      "businesses": 8107,
      "Researchers": 8108,
      "##liest": 8109,
      "injured": 8110,
      "depends": 8111,
      "Glowworm": 8112,
      "Indian": 8113,
      "executed": 8114,
      "privacy": 8115,
      "secretary": 8116,
      "approaching": 8117,
      "properties": 8118,
      "contributions": 8119,
      "historian": 8120,
      "CoV": 8121,
      "##ospital": 8122,
      "absolut": 8123,
      "Muslim": 8124,
      "trembling": 8125,
      "walking": 8126,
      "preparing": 8127,
      "embark": 8128,
      "defeated": 8129,
      "Palestinians": 8130,
      "Mean": 8131,
      "droplets": 8132,
      "educated": 8133,
      "fatal": 8134,
      "complaints": 8135,
      "neighbor": 8136,
      "prisoners": 8137,
      "closest": 8138,
      "floor": 8139,
      "discussing": 8140,
      "Using": 8141,
      "Users": 8142,
      "rocket": 8143,
      "proposal": 8144,
      "Jewish": 8145,
      "harmless": 8146,
      "doubtless": 8147,
      "Victoria": 8148,
      "Democr": 8149,
      "Greeks": 8150,
      "Holmes": 8151,
      "Hollywood": 8152,
      "Office": 8153,
      "aims": 8154,
      "harbour": 8155,
      "measure": 8156,
      "moderate": 8157,
      "denied": 8158,
      "calculated": 8159,
      "succeed": 8160,
      "unsupervised": 8161,
      "contempt": 8162,
      "consented": 8163,
      "lexemes": 8164,
      "minesweeper": 8165,
      "traditional": 8166,
      "evacuated": 8167,
      "sortie": 8168,
      "reinforcement": 8169,
      "challenge": 8170,
      "perfectly": 8171,
      "parentheses": 8172,
      "victims": 8173,
      "madness": 8174,
      "tendency": 8175,
      "inquir": 8176,
      "##iciency": 8177,
      "freedom": 8178,
      "horizont": 8179,
      "satisfy": 8180,
      "Author": 8181,
      "Emperor": 8182,
      "Krempe": 8183,
      "Memorial": 8184,
      "eagerly": 8185,
      "penet": 8186,
      "sending": 8187,
      "hellish": 8188,
      "sustain": 8189,
      "Lexical": 8190,
      "Scotch": 8191,
      "Similar": 8192,
      "awarded": 8193,
      "renew": 8194,
      "##olutions": 8195,
      "quantity": 8196,
      "Concern": 8197,
      "577": 8198,
      "Michael": 8199,
      "masters": 8200,
      "vacc": 8201,
      "reforms": 8202,
      "##abilistic": 8203,
      "upgrade": 8204,
      "ambition": 8205,
      "recollection": 8206,
      "cultivated": 8207,
      "analyzer": 8208,
      "543": 8209,
      "furniture": 8210,
      "exactly": 8211,
      "expedition": 8212,
      "abandoned": 8213,
      "decreased": 8214,
      "overwhelming": 8215,
      "Provisional": 8216,
      "Australia": 8217,
      "circumstances": 8218,
      "Valkyrie": 8219,
      "Cherbourg": 8220,
      "Ethiop": 8221,
      "Olymp": 8222,
      "dilig": 8223,
      "welc": 8224,
      "proteins": 8225,
      "traits": 8226,
      "chairman": 8227,
      "ownership": 8228,
      "benevolence": 8229,
      "legislation": 8230,
      "neglected": 8231,
      "unsuccessful": 8232,
      "casualties": 8233,
      "Korean": 8234,
      "Opportunity": 8235,
      "Skagerrak": 8236,
      "Wallace": 8237,
      "##theless": 8238,
      "fragments": 8239,
      "prosecution": 8240,
      "intellectual": 8241,
      "obvious": 8242,
      "monitoring": 8243,
      "Politburo": 8244,
      "behaviour": 8245,
      "spokesman": 8246,
      "withdrawal": 8247,
      "Cyber": 8248,
      "Cleveland": 8249,
      "Ltd": 8250,
      "Liberator": 8251,
      "Martin": 8252,
      "Mexico": 8253,
      "Oxford": 8254,
      "PaLM": 8255,
      "Peninsula": 8256,
      "Rhine": 8257,
      "##senal": 8258,
      "Additionally": 8259,
      "constituent": 8260,
      "horsepower": 8261,
      "Shortly": 8262,
      "snowflakes": 8263,
      "Abbas": 8264,
      "adversarial": 8265,
      "chatbot": 8266,
      "Football": 8267,
      "Holland": 8268,
      "Kazakh": 8269,
      "Remember": 8270,
      "bullet": 8271,
      "gigantic": 8272,
      "pronounced": 8273,
      "incomplete": 8274,
      "##rowsing": 8275,
      "redesign": 8276,
      "rebuilt": 8277,
      "Bulgar": 8278,
      "Condé": 8279,
      "Joseph": 8280,
      "cosm": 8281,
      "custody": 8282,
      "elder": 8283,
      "flesh": 8284,
      "hunger": 8285,
      "hovel": 8286,
      "##VID": 8287,
      "Germaniawerft": 8288,
      "Hohent": 8289,
      "Software": 8290,
      "catastrophe": 8291,
      "POWs": 8292,
      "Baghdad": 8293,
      "Dynamo": 8294,
      "Fowler": 8295,
      "Gironde": 8296,
      "Suffolk": 8297,
      "SARS": 8298,
      "Yeltsin": 8299,
      "diplomatic": 8300,
      "nurse": 8301,
      "seldom": 8302,
      "tumult": 8303,
      "tonnes": 8304,
      "upload": 8305,
      "##cohol": 8306,
      "inadequ": 8307,
      "07": 8308,
      "450": 8309,
      "76": 8310,
      "7th": 8311,
      "82": 8312,
      "842": 8313,
      "Aff": 8314,
      "AMA": 8315,
      "ABC": 8316,
      "Back": 8317,
      "BBC": 8318,
      "Cult": 8319,
      "Cred": 8320,
      "Cilia": 8321,
      "Cinder": 8322,
      "Dover": 8323,
      "Duke": 8324,
      "Form": 8325,
      "Farewell": 8326,
      "Git": 8327,
      "Hur": 8328,
      "Hay": 8329,
      "Hug": 8330,
      "Homer": 8331,
      "IV": 8332,
      "Jud": 8333,
      "Kö": 8334,
      "Ken": 8335,
      "Kol": 8336,
      "Know": 8337,
      "Lord": 8338,
      "Like": 8339,
      "Lords": 8340,
      "ML": 8341,
      "Miam": 8342,
      "MLP": 8343,
      "Maj": 8344,
      "NA": 8345,
      "Nat": 8346,
      "Nord": 8347,
      "Nob": 8348,
      "Nothing": 8349,
      "Pur": 8350,
      "Piet": 8351,
      "Pred": 8352,
      "Pars": 8353,
      "Ron": 8354,
      "Rog": 8355,
      "Ser": 8356,
      "Sem": 8357,
      "Sass": 8358,
      "Sino": 8359,
      "T3": 8360,
      "Term": 8361,
      "Tues": 8362,
      "Traf": 8363,
      "Val": 8364,
      "WW": 8365,
      "Wed": 8366,
      "Well": 8367,
      "Wake": 8368,
      "Wister": 8369,
      "Wald": 8370,
      "ZH": 8371,
      "Zur": 8372,
      "aware": 8373,
      "astr": 8374,
      "bought": 8375,
      "bureau": 8376,
      "core": 8377,
      "coded": 8378,
      "caught": 8379,
      "dorm": 8380,
      "dock": 8381,
      "dio": 8382,
      "diver": 8383,
      "ferm": 8384,
      "fost": 8385,
      "fish": 8386,
      "fury": 8387,
      "faced": 8388,
      "fainted": 8389,
      "fishing": 8390,
      "fasc": 8391,
      "gh": 8392,
      "gest": 8393,
      "garden": 8394,
      "hes": 8395,
      "hence": 8396,
      "hung": 8397,
      "icing": 8398,
      "lies": 8399,
      "lectures": 8400,
      "mo": 8401,
      "mour": 8402,
      "mand": 8403,
      "mood": 8404,
      "mouth": 8405,
      "nam": 8406,
      "nights": 8407,
      "om": 8408,
      "por": 8409,
      "pil": 8410,
      "pour": 8411,
      "poll": 8412,
      "pock": 8413,
      "pause": 8414,
      "pains": 8415,
      "pione": 8416,
      "rally": 8417,
      "rely": 8418,
      "rash": 8419,
      "roughly": 8420,
      "sad": 8421,
      "sch": 8422,
      "sized": 8423,
      "soph": 8424,
      "sizes": 8425,
      "tip": 8426,
      "ties": 8427,
      "tore": 8428,
      "tended": 8429,
      "talent": 8430,
      "tanks": 8431,
      "vow": 8432,
      "wise": 8433,
      "wrap": 8434,
      "wander": 8435,
      "zone": 8436,
      "zero": 8437,
      "##oqu": 8438,
      "##eur": 8439,
      "##rs": 8440,
      "##ris": 8441,
      "##rum": 8442,
      "##rine": 8443,
      "##rast": 8444,
      "##rsc": 8445,
      "##rences": 8446,
      "##ression": 8447,
      "##lers": 8448,
      "##lass": 8449,
      "##limin": 8450,
      "##nik": 8451,
      "##nels": 8452,
      "##upp": 8453,
      "##uable": 8454,
      "##mo": 8455,
      "##mation": 8456,
      "##more": 8457,
      "##menger": 8458,
      "##got": 8459,
      "##gated": 8460,
      "##gone": 8461,
      "##gments": 8462,
      "##greg": 8463,
      "##ported": 8464,
      "##piec": 8465,
      "##cer": 8466,
      "##cript": 8467,
      "##cription": 8468,
      "##then": 8469,
      "##AL": 8470,
      "##dmenger": 8471,
      "##fers": 8472,
      "##bell": 8473,
      "##bung": 8474,
      "##ha": 8475,
      "##hop": 8476,
      "##hand": 8477,
      "##hail": 8478,
      "##wall": 8479,
      "##wiel": 8480,
      "##40": 8481,
      "##übung": 8482,
      "##yc": 8483,
      "##zart": 8484,
      "##zone": 8485,
      "##xist": 8486,
      "##xide": 8487,
      "##TO": 8488,
      "##Cun": 8489,
      "##hetic": 8490,
      "##erts": 8491,
      "theoret": 8492,
      "##edy": 8493,
      "##inted": 8494,
      "##onent": 8495,
      "##onze": 8496,
      "##esc": 8497,
      "##oria": 8498,
      "##orph": 8499,
      "##anz": 8500,
      "##anas": 8501,
      "##arted": 8502,
      "##arant": 8503,
      "##arations": 8504,
      "##itud": 8505,
      "##itely": 8506,
      "##itron": 8507,
      "inac": 8508,
      "touch": 8509,
      "##inged": 8510,
      "##alog": 8511,
      "##alition": 8512,
      "##algar": 8513,
      "##outs": 8514,
      "##ica": 8515,
      "##icy": 8516,
      "##icut": 8517,
      "##icate": 8518,
      "##icine": 8519,
      "##ichel": 8520,
      "##eland": 8521,
      "thr": 8522,
      "##entine": 8523,
      "##ether": 8524,
      "##ette": 8525,
      "##econ": 8526,
      "##uri": 8527,
      "##uria": 8528,
      "##urally": 8529,
      "##urious": 8530,
      "##stag": 8531,
      "##roid": 8532,
      "##adise": 8533,
      "##admiral": 8534,
      "##othed": 8535,
      "##iration": 8536,
      "##ersey": 8537,
      "##amous": 8538,
      "##iger": 8539,
      "whale": 8540,
      "whither": 8541,
      "react": 8542,
      "store": 8543,
      "stood": 8544,
      "##seolo": 8545,
      "##vereign": 8546,
      "anch": 8547,
      "anger": 8548,
      "analog": 8549,
      "##estr": 8550,
      "conver": 8551,
      "congr": 8552,
      "##agg": 8553,
      "##agan": 8554,
      "myth": 8555,
      "##change": 8556,
      "##chief": 8557,
      "alcohol": 8558,
      "##emit": 8559,
      "##emark": 8560,
      "##ulse": 8561,
      "##ipline": 8562,
      "##ipedia": 8563,
      "comic": 8564,
      "##unted": 8565,
      "existed": 8566,
      "external": 8567,
      "##ifier": 8568,
      "hab": 8569,
      "##ourney": 8570,
      "##osy": 8571,
      "##ivision": 8572,
      "##abling": 8573,
      "##illance": 8574,
      "orange": 8575,
      "##uma": 8576,
      "##umber": 8577,
      "notion": 8578,
      "trig": 8579,
      "traged": 8580,
      "##apes": 8581,
      "##ardon": 8582,
      "spam": 8583,
      "spared": 8584,
      "enable": 8585,
      "chains": 8586,
      "aren": 8587,
      "arts": 8588,
      "arbit": 8589,
      "##ghorn": 8590,
      "##anges": 8591,
      "##perform": 8592,
      "##oung": 8593,
      "##avel": 8594,
      "Inner": 8595,
      "##ostin": 8596,
      "##ruption": 8597,
      "##ocate": 8598,
      "unsc": 8599,
      "unified": 8600,
      "unless": 8601,
      "plain": 8602,
      "intr": 8603,
      "##uderd": 8604,
      "##ibal": 8605,
      "##ibilities": 8606,
      "abstr": 8607,
      "containing": 8608,
      "imb": 8609,
      "impl": 8610,
      "##iances": 8611,
      "##assed": 8612,
      "incred": 8613,
      "incoming": 8614,
      "inclined": 8615,
      "##ogether": 8616,
      "adult": 8617,
      "adject": 8618,
      "sovereign": 8619,
      "weighed": 8620,
      "modes": 8621,
      "disposition": 8622,
      "ages": 8623,
      "aggreg": 8624,
      "##actic": 8625,
      "genius": 8626,
      "apps": 8627,
      "desir": 8628,
      "desires": 8629,
      "desolation": 8630,
      "deskt": 8631,
      "desolate": 8632,
      "scream": 8633,
      "screw": 8634,
      "scattered": 8635,
      "##ubbed": 8636,
      "attribut": 8637,
      "##press": 8638,
      "commenced": 8639,
      "evolve": 8640,
      "destroying": 8641,
      "Stat": 8642,
      "##ptoms": 8643,
      "##ikes": 8644,
      "##ikely": 8645,
      "prelimin": 8646,
      "Though": 8647,
      "Thames": 8648,
      "Third": 8649,
      "shewed": 8650,
      "##ending": 8651,
      "outd": 8652,
      "outcome": 8653,
      "outperform": 8654,
      "consecut": 8655,
      "grass": 8656,
      "offers": 8657,
      "##elfare": 8658,
      "formally": 8659,
      "doz": 8660,
      "doomed": 8661,
      "reparations": 8662,
      "decisive": 8663,
      "management": 8664,
      "accus": 8665,
      "accused": 8666,
      "accomm": 8667,
      "overc": 8668,
      "transdu": 8669,
      "query": 8670,
      "##ugged": 8671,
      "underw": 8672,
      "underwrit": 8673,
      "Altern": 8674,
      "Chief": 8675,
      "retire": 8676,
      "retained": 8677,
      "imposing": 8678,
      "induced": 8679,
      "boost": 8680,
      "streng": 8681,
      "##ossip": 8682,
      "humour": 8683,
      "Russell": 8684,
      "blasted": 8685,
      "##athing": 8686,
      "subm": 8687,
      "subsc": 8688,
      "submit": 8689,
      "ears": 8690,
      "charged": 8691,
      "1934": 8692,
      "longest": 8693,
      "embr": 8694,
      "teen": 8695,
      "teeth": 8696,
      "##obi": 8697,
      "aired": 8698,
      "##ructure": 8699,
      "##marks": 8700,
      "##ictions": 8701,
      "capability": 8702,
      "parks": 8703,
      "2016": 8704,
      "flu": 8705,
      "flight": 8706,
      "flowers": 8707,
      "institution": 8708,
      "loos": 8709,
      "owner": 8710,
      "ackn": 8711,
      "founder": 8712,
      "Adam": 8713,
      "Adolf": 8714,
      "presents": 8715,
      "##icked": 8716,
      "Ask": 8717,
      "insur": 8718,
      "insured": 8719,
      "insisted": 8720,
      "inserted": 8721,
      "assass": 8722,
      "assume": 8723,
      "Comin": 8724,
      "Comecon": 8725,
      "regulation": 8726,
      "regulate": 8727,
      "supply": 8728,
      "coherent": 8729,
      "advocated": 8730,
      "secure": 8731,
      "extinct": 8732,
      "discipline": 8733,
      "effected": 8734,
      "Whit": 8735,
      "root": 8736,
      "buying": 8737,
      "##works": 8738,
      "Ang": 8739,
      "Anton": 8740,
      "conviction": 8741,
      "visits": 8742,
      "knowing": 8743,
      "##parency": 8744,
      "mining": 8745,
      "##onto": 8746,
      "concrete": 8747,
      "dram": 8748,
      "drunk": 8749,
      "superhe": 8750,
      "supernatural": 8751,
      "processed": 8752,
      "Work": 8753,
      "polar": 8754,
      "10th": 8755,
      "designing": 8756,
      "entity": 8757,
      "entitled": 8758,
      "promoted": 8759,
      "finish": 8760,
      "finite": 8761,
      "affairs": 8762,
      "glass": 8763,
      "glorious": 8764,
      "governed": 8765,
      "governments": 8766,
      "slower": 8767,
      "slave": 8768,
      "slowed": 8769,
      "LeCun": 8770,
      "Leghorn": 8771,
      "infant": 8772,
      "infamous": 8773,
      "bacterium": 8774,
      "expansion": 8775,
      "bombard": 8776,
      "bombarding": 8777,
      "requisition": 8778,
      "armored": 8779,
      "explicit": 8780,
      "respected": 8781,
      "curie": 8782,
      "classical": 8783,
      "classified": 8784,
      "creative": 8785,
      "eloqu": 8786,
      "technological": 8787,
      "1992": 8788,
      "1995": 8789,
      "collision": 8790,
      "computing": 8791,
      "stature": 8792,
      "statue": 8793,
      "membr": 8794,
      "Clark": 8795,
      "organize": 8796,
      "organizations": 8797,
      "Conference": 8798,
      "oldest": 8799,
      "suffering": 8800,
      "sufficiently": 8801,
      "##suit": 8802,
      "guess": 8803,
      "guidel": 8804,
      "guarant": 8805,
      "morally": 8806,
      "machinery": 8807,
      "protest": 8808,
      "protected": 8809,
      "protagon": 8810,
      "Beach": 8811,
      "Begin": 8812,
      "hardware": 8813,
      "characteristics": 8814,
      "Andrey": 8815,
      "Android": 8816,
      "planes": 8817,
      "Sculpt": 8818,
      "School": 8819,
      "skept": 8820,
      "anniversary": 8821,
      "interests": 8822,
      "limits": 8823,
      "realized": 8824,
      "supporting": 8825,
      "14th": 8826,
      "Herrsc": 8827,
      "pool": 8828,
      "##iveness": 8829,
      "medical": 8830,
      "occupy": 8831,
      "occupations": 8832,
      "failures": 8833,
      "lesser": 8834,
      "Reichstag": 8835,
      "multitude": 8836,
      "reading": 8837,
      "colours": 8838,
      "elegant": 8839,
      "beneficial": 8840,
      "location": 8841,
      "sites": 8842,
      "1919": 8843,
      "valuable": 8844,
      "##arma": 8845,
      "probe": 8846,
      "viewing": 8847,
      "facing": 8848,
      "coverage": 8849,
      "publish": 8850,
      "occurrences": 8851,
      "Prob": 8852,
      "seemingly": 8853,
      "steaming": 8854,
      "helping": 8855,
      "representatives": 8856,
      "motiv": 8857,
      "1960": 8858,
      "swept": 8859,
      "##apped": 8860,
      "1924": 8861,
      "1920": 8862,
      "1925": 8863,
      "uncont": 8864,
      "crews": 8865,
      "seaworthy": 8866,
      "similarly": 8867,
      "putting": 8868,
      "standards": 8869,
      "introducing": 8870,
      "masses": 8871,
      "profile": 8872,
      "professional": 8873,
      "identical": 8874,
      "identification": 8875,
      "keen": 8876,
      "sentence": 8877,
      "##brid": 8878,
      "thinking": 8879,
      "recognize": 8880,
      "Agency": 8881,
      "falls": 8882,
      "viruses": 8883,
      "agreements": 8884,
      "architect": 8885,
      "conceal": 8886,
      "concepts": 8887,
      "concealed": 8888,
      "Organ": 8889,
      "Orseolo": 8890,
      "Paradise": 8891,
      "barrier": 8892,
      "consume": 8893,
      "Ministry": 8894,
      "arguments": 8895,
      "acquisition": 8896,
      "authority": 8897,
      "frequent": 8898,
      "frequencies": 8899,
      "getting": 8900,
      "litres": 8901,
      "competing": 8902,
      "competitive": 8903,
      "volumes": 8904,
      "conversations": 8905,
      "350": 8906,
      "snowstorm": 8907,
      "Finally": 8908,
      "winner": 8909,
      "##ursed": 8910,
      "trademark": 8911,
      "impression": 8912,
      "magnet": 8913,
      "virtues": 8914,
      "Model": 8915,
      "favourable": 8916,
      "deadly": 8917,
      "choice": 8918,
      "philosopher": 8919,
      "311": 8920,
      "Ernest": 8921,
      "Erdmenger": 8922,
      "wooden": 8923,
      "principle": 8924,
      "explosive": 8925,
      "musical": 8926,
      "capacities": 8927,
      "violent": 8928,
      "##raction": 8929,
      "##isco": 8930,
      "fiendish": 8931,
      "countenances": 8932,
      "responsibility": 8933,
      "expressive": 8934,
      "suggests": 8935,
      "Bergen": 8936,
      "cuts": 8937,
      "ethical": 8938,
      "funds": 8939,
      "fundament": 8940,
      "payment": 8941,
      "records": 8942,
      "involves": 8943,
      "superintelligent": 8944,
      "India": 8945,
      "##ahn": 8946,
      "perceive": 8947,
      "perceiving": 8948,
      "regional": 8949,
      "motionless": 8950,
      "bitterness": 8951,
      "industries": 8952,
      "bringing": 8953,
      "temperatures": 8954,
      "principally": 8955,
      "Cooper": 8956,
      "absor": 8957,
      "speakers": 8958,
      "terrorist": 8959,
      "terrorism": 8960,
      "terrorists": 8961,
      "Books": 8962,
      "mistake": 8963,
      "mistaken": 8964,
      "tremendous": 8965,
      "contrary": 8966,
      "Egyptian": 8967,
      "Otto": 8968,
      "holding": 8969,
      "##roads": 8970,
      "ancest": 8971,
      "dissip": 8972,
      "preparation": 8973,
      "purchases": 8974,
      "pointed": 8975,
      "slept": 8976,
      "neighb": 8977,
      "collecting": 8978,
      "safegu": 8979,
      "emergence": 8980,
      "inhabited": 8981,
      "Toronto": 8982,
      "audience": 8983,
      "balance": 8984,
      "unlikely": 8985,
      "resource": 8986,
      "belonging": 8987,
      "horrors": 8988,
      "opportunities": 8989,
      "Super": 8990,
      "ranking": 8991,
      "suspected": 8992,
      "suspended": 8993,
      "relationships": 8994,
      "traveling": 8995,
      "Offic": 8996,
      "essential": 8997,
      "irre": 8998,
      "sickened": 8999,
      "talking": 9000,
      "##elius": 9001,
      "intervals": 9002,
      "regularly": 9003,
      "Construction": 9004,
      "satellites": 9005,
      "optimization": 9006,
      "Turkey": 9007,
      "microb": 9008,
      "websites": 9009,
      "defenders": 9010,
      "salvo": 9011,
      "novelty": 9012,
      "657": 9013,
      "Lauderd": 9014,
      "Prev": 9015,
      "Prefecture": 9016,
      "Underground": 9017,
      "piece": 9018,
      "wisdom": 9019,
      "contempl": 9020,
      "retrotransposons": 9021,
      "implementation": 9022,
      "occasionally": 9023,
      "Ottoman": 9024,
      "Colbert": 9025,
      "Federal": 9026,
      "jobs": 9027,
      "normally": 9028,
      "reinforced": 9029,
      "##agnosis": 9030,
      "Instead": 9031,
      "amplitude": 9032,
      "Archangel": 9033,
      "proportions": 9034,
      "Slavonic": 9035,
      "diversity": 9036,
      "rolled": 9037,
      "inquired": 9038,
      "withdrew": 9039,
      "exercises": 9040,
      "Francisco": 9041,
      "elevated": 9042,
      "Guard": 9043,
      "Publications": 9044,
      "dedicated": 9045,
      "gathered": 9046,
      "linear": 9047,
      "links": 9048,
      "logo": 9049,
      "excessive": 9050,
      "administrative": 9051,
      "amidships": 9052,
      "surrendered": 9053,
      "Beauf": 9054,
      "windsur": 9055,
      "encouraged": 9056,
      "McCl": 9057,
      "McCall": 9058,
      "railway": 9059,
      "spectac": 9060,
      "descended": 9061,
      "Starostin": 9062,
      "struggled": 9063,
      "791": 9064,
      "hampered": 9065,
      "liberty": 9066,
      "##front": 9067,
      "##ascot": 9068,
      "enlar": 9069,
      "gratitude": 9070,
      "corpus": 9071,
      "colleagues": 9072,
      "identifier": 9073,
      "kilometres": 9074,
      "Bolshevik": 9075,
      "accelerator": 9076,
      "accelerators": 9077,
      "Mozart": 9078,
      "Michigan": 9079,
      "dialogue": 9080,
      "lieu": 9081,
      "message": 9082,
      "anxious": 9083,
      "agreeable": 9084,
      "metabolic": 9085,
      "Sharon": 9086,
      "semicolons": 9087,
      "consciousness": 9088,
      "Carol": 9089,
      "Furthermore": 9090,
      "Z16": 9091,
      "baggage": 9092,
      "breath": 9093,
      "linked": 9094,
      "luxury": 9095,
      "##uzz": 9096,
      "rejoin": 9097,
      "comparable": 9098,
      "interrupted": 9099,
      "religious": 9100,
      "Prussia": 9101,
      "Prussian": 9102,
      "cleaning": 9103,
      "Australian": 9104,
      "circumstance": 9105,
      "Valkyries": 9106,
      "Build": 9107,
      "Danzig": 9108,
      "Melville": 9109,
      "dimension": 9110,
      "inherited": 9111,
      "sponsored": 9112,
      "cliche": 9113,
      "preferences": 9114,
      "mathematical": 9115,
      "mathematics": 9116,
      "Mikhail": 9117,
      "Nevertheless": 9118,
      "coding": 9119,
      "coins": 9120,
      "village": 9121,
      "admire": 9122,
      "update": 9123,
      "Steve": 9124,
      "pretty": 9125,
      "voluntarily": 9126,
      "Graham": 9127,
      "ceremony": 9128,
      "dwelling": 9129,
      "shudder": 9130,
      "interconn": 9131,
      "indenting": 9132,
      "capsized": 9133,
      "extinguished": 9134,
      "cursed": 9135,
      "Manchuria": 9136,
      "sacrifice": 9137,
      "Catholic": 9138,
      "Hindu": 9139,
      "Kaiser": 9140,
      "Novaya": 9141,
      "Renaissance": 9142,
      "diameter": 9143,
      "fingers": 9144,
      "adults": 9145,
      "surveillance": 9146,
      "Jean": 9147,
      "MPP": 9148,
      "Wikipedia": 9149,
      "dynamics": 9150,
      "mitig": 9151,
      "vanished": 9152,
      "Theodor": 9153,
      "relieve": 9154,
      "empty": 9155,
      "finetuned": 9156,
      "entertainment": 9157,
      "metabolism": 9158,
      "crystals": 9159,
      "Cornelius": 9160,
      "Groß": 9161,
      "Libau": 9162,
      "Miyagi": 9163,
      "Zemlya": 9164,
      "borough": 9165,
      "babbage": 9166,
      "dejection": 9167,
      "Insurance": 9168,
      "overthrow": 9169,
      "Albania": 9170,
      "Alpha": 9171,
      "Chicago": 9172,
      "phrase": 9173,
      "Transformer": 9174,
      "Ernst": 9175,
      "fortunate": 9176,
[...]
